/* Copyright 2021 The TensorFlow Authors. All Rights Reserved.
Licensed under the Apache License, Version 2.0 (the "License");
you may not use this file except in compliance with the License.
You may obtain a copy of the License at
    http://www.apache.org/licenses/LICENSE-2.0
Unless required by applicable law or agreed to in writing, software
distributed under the License is distributed on an "AS IS" BASIS,
WITHOUT WARRANTIES OR CONDITIONS OF ANY KIND, either express or implied.
See the License for the specific language governing permissions and
limitations under the License.
==============================================================================*/

unsigned char g_magic_wand_model_data[] = {
    0x20, 0x00, 0x00, 0x00, 0x54, 0x46, 0x4c, 0x33, 0x00, 0x00, 0x00, 0x00,
    0x14, 0x00, 0x20, 0x00, 0x04, 0x00, 0x08, 0x00, 0x0c, 0x00, 0x10, 0x00,
    0x14, 0x00, 0x00, 0x00, 0x18, 0x00, 0x1c, 0x00, 0x14, 0x00, 0x00, 0x00,
    0x03, 0x00, 0x00, 0x00, 0x18, 0x00, 0x00, 0x00, 0x28, 0x00, 0x00, 0x00,
    0x44, 0x01, 0x00, 0x00, 0x28, 0x00, 0x00, 0x00, 0xec, 0x00, 0x00, 0x00,
    0x6c, 0x00, 0x00, 0x00, 0x04, 0x00, 0x00, 0x00, 0xec, 0x06, 0x00, 0x00,
    0xa4, 0x03, 0x00, 0x00, 0xcc, 0x02, 0x00, 0x00, 0x0c, 0x02, 0x00, 0x00,
    0x01, 0x00, 0x00, 0x00, 0x40, 0x01, 0x00, 0x00, 0x12, 0x00, 0x00, 0x00,
    0x3c, 0x78, 0x00, 0x00, 0x38, 0x78, 0x00, 0x00, 0x08, 0x77, 0x00, 0x00,
    0xc4, 0x73, 0x00, 0x00, 0x04, 0x72, 0x00, 0x00, 0x14, 0x5e, 0x00, 0x00,
    0x4c, 0x5b, 0x00, 0x00, 0xdc, 0x0f, 0x00, 0x00, 0x14, 0x0b, 0x00, 0x00,
    0x24, 0x08, 0x00, 0x00, 0x9c, 0x07, 0x00, 0x00, 0x10, 0x78, 0x00, 0x00,
    0x0c, 0x78, 0x00, 0x00, 0x08, 0x78, 0x00, 0x00, 0x04, 0x78, 0x00, 0x00,
    0x00, 0x78, 0x00, 0x00, 0xfc, 0x77, 0x00, 0x00, 0xb4, 0x00, 0x00, 0x00,
    0x01, 0x00, 0x00, 0x00, 0x10, 0x00, 0x00, 0x00, 0x00, 0x00, 0x0a, 0x00,
    0x10, 0x00, 0x0c, 0x00, 0x08, 0x00, 0x04, 0x00, 0x0a, 0x00, 0x00, 0x00,
    0x0c, 0x00, 0x00, 0x00, 0x1c, 0x00, 0x00, 0x00, 0x20, 0x00, 0x00, 0x00,
    0x0f, 0x00, 0x00, 0x00, 0x73, 0x65, 0x72, 0x76, 0x69, 0x6e, 0x67, 0x5f,
    0x64, 0x65, 0x66, 0x61, 0x75, 0x6c, 0x74, 0x00, 0x01, 0x00, 0x00, 0x00,
    0x14, 0x00, 0x00, 0x00, 0x01, 0x00, 0x00, 0x00, 0x24, 0x00, 0x00, 0x00,
    0x08, 0x00, 0x0c, 0x00, 0x08, 0x00, 0x04, 0x00, 0x08, 0x00, 0x00, 0x00,
    0x0f, 0x00, 0x00, 0x00, 0x04, 0x00, 0x00, 0x00, 0x05, 0x00, 0x00, 0x00,
    0x64, 0x65, 0x6e, 0x73, 0x65, 0x00, 0x00, 0x00, 0xa6, 0x89, 0xff, 0xff,
    0x04, 0x00, 0x00, 0x00, 0x07, 0x00, 0x00, 0x00, 0x69, 0x6e, 0x70, 0x75,
    0x74, 0x5f, 0x31, 0x00, 0x01, 0x00, 0x00, 0x00, 0x0c, 0x00, 0x00, 0x00,
    0x08, 0x00, 0x0c, 0x00, 0x04, 0x00, 0x08, 0x00, 0x08, 0x00, 0x00, 0x00,
    0x08, 0x00, 0x00, 0x00, 0x11, 0x00, 0x00, 0x00, 0x13, 0x00, 0x00, 0x00,
    0x6d, 0x69, 0x6e, 0x5f, 0x72, 0x75, 0x6e, 0x74, 0x69, 0x6d, 0x65, 0x5f,
    0x76, 0x65, 0x72, 0x73, 0x69, 0x6f, 0x6e, 0x00, 0xee, 0x89, 0xff, 0xff,
    0x04, 0x00, 0x00, 0x00, 0x10, 0x00, 0x00, 0x00, 0x31, 0x2e, 0x31, 0x34,
    0x2e, 0x30, 0x00, 0x00, 0x00, 0x00, 0x00, 0x00, 0x00, 0x00, 0x00, 0x00,
    0x0f, 0x00, 0x00, 0x00, 0x4d, 0x4c, 0x49, 0x52, 0x20, 0x43, 0x6f, 0x6e,
    0x76, 0x65, 0x72, 0x74, 0x65, 0x64, 0x2e, 0x00, 0x00, 0x00, 0x0e, 0x00,
    0x18, 0x00, 0x04, 0x00, 0x08, 0x00, 0x0c, 0x00, 0x10, 0x00, 0x14, 0x00,
    0x0e, 0x00, 0x00, 0x00, 0x14, 0x00, 0x00, 0x00, 0x54, 0x00, 0x00, 0x00,
    0x58, 0x00, 0x00, 0x00, 0x5c, 0x00, 0x00, 0x00, 0x74, 0x00, 0x00, 0x00,
    0x10, 0x00, 0x00, 0x00, 0x54, 0x76, 0x00, 0x00, 0xdc, 0x75, 0x00, 0x00,
    0x30, 0x74, 0x00, 0x00, 0x00, 0x71, 0x00, 0x00, 0xd0, 0x6e, 0x00, 0x00,
    0x88, 0x5a, 0x00, 0x00, 0x98, 0x56, 0x00, 0x00, 0xd0, 0x0a, 0x00, 0x00,
    0x60, 0x09, 0x00, 0x00, 0x80, 0x06, 0x00, 0x00, 0x64, 0x05, 0x00, 0x00,
    0xfc, 0x03, 0x00, 0x00, 0xd0, 0x02, 0x00, 0x00, 0x14, 0x02, 0x00, 0x00,
    0x3c, 0x01, 0x00, 0x00, 0x7c, 0x00, 0x00, 0x00, 0x01, 0x00, 0x00, 0x00,
    0x00, 0x00, 0x00, 0x00, 0x01, 0x00, 0x00, 0x00, 0x0f, 0x00, 0x00, 0x00,
    0x06, 0x00, 0x00, 0x00, 0xd4, 0x04, 0x00, 0x00, 0x94, 0x03, 0x00, 0x00,
    0x68, 0x02, 0x00, 0x00, 0xa8, 0x01, 0x00, 0x00, 0xcc, 0x00, 0x00, 0x00,
    0x10, 0x00, 0x00, 0x00, 0x04, 0x00, 0x00, 0x00, 0x6d, 0x61, 0x69, 0x6e,
    0x00, 0x00, 0x00, 0x00, 0x7e, 0xfe, 0xff, 0xff, 0x00, 0x00, 0x00, 0x09,
    0x03, 0x00, 0x00, 0x00, 0x1c, 0x00, 0x00, 0x00, 0x10, 0x00, 0x00, 0x00,
    0x04, 0x00, 0x00, 0x00, 0xda, 0x8a, 0xff, 0xff, 0x00, 0x00, 0x80, 0x3f,
    0x01, 0x00, 0x00, 0x00, 0x0f, 0x00, 0x00, 0x00, 0x01, 0x00, 0x00, 0x00,
    0x0e, 0x00, 0x00, 0x00, 0x38, 0xfb, 0xff, 0xff, 0x19, 0x00, 0x00, 0x00,
    0x00, 0x00, 0x00, 0x19, 0x02, 0x00, 0x00, 0x00, 0x78, 0x8a, 0xff, 0xff,
    0x00, 0x00, 0x00, 0x09, 0x14, 0x00, 0x00, 0x00, 0x10, 0x00, 0x00, 0x00,
    0x18, 0x00, 0x00, 0x00, 0x40, 0x00, 0x00, 0x00, 0x30, 0x00, 0x00, 0x00,
    0x02, 0x00, 0x00, 0x00, 0x01, 0x00, 0x00, 0x00, 0x0a, 0x00, 0x00, 0x00,
    0x19, 0x00, 0x00, 0x00, 0x53, 0x74, 0x61, 0x74, 0x65, 0x66, 0x75, 0x6c,
    0x50, 0x61, 0x72, 0x74, 0x69, 0x74, 0x69, 0x6f, 0x6e, 0x65, 0x64, 0x43,
    0x61, 0x6c, 0x6c, 0x3a, 0x30, 0x00, 0x00, 0x00, 0x02, 0x00, 0x00, 0x00,
    0xff, 0xff, 0xff, 0xff, 0x0a, 0x00, 0x00, 0x00, 0x54, 0x8a, 0xff, 0xff,
    0x08, 0x00, 0x00, 0x00, 0x0c, 0x00, 0x00, 0x00, 0x01, 0x00, 0x00, 0x00,
    0x00, 0x00, 0x80, 0x3b, 0x01, 0x00, 0x00, 0x00, 0x80, 0xff, 0xff, 0xff,
    0xff, 0xff, 0xff, 0xff, 0x00, 0x00, 0x00, 0x00, 0x36, 0xff, 0xff, 0xff,
    0x00, 0x00, 0x00, 0x08, 0x02, 0x00, 0x00, 0x00, 0x18, 0x00, 0x00, 0x00,
    0x0c, 0x00, 0x00, 0x00, 0x04, 0x00, 0x00, 0x00, 0x64, 0x8a, 0xff, 0xff,
    0x01, 0x00, 0x00, 0x00, 0x0e, 0x00, 0x00, 0x00, 0x03, 0x00, 0x00, 0x00,
    0x0d, 0x00, 0x00, 0x00, 0x08, 0x00, 0x00, 0x00, 0x09, 0x00, 0x00, 0x00,
    0xf4, 0xfb, 0xff, 0xff, 0x09, 0x00, 0x00, 0x00, 0x00, 0x00, 0x00, 0x09,
    0x04, 0x00, 0x00, 0x00, 0x34, 0x8b, 0xff, 0xff, 0x00, 0x00, 0x00, 0x09,
    0x14, 0x00, 0x00, 0x00, 0x0f, 0x00, 0x00, 0x00, 0x18, 0x00, 0x00, 0x00,
    0x4c, 0x00, 0x00, 0x00, 0x3c, 0x00, 0x00, 0x00, 0x02, 0x00, 0x00, 0x00,
    0x01, 0x00, 0x00, 0x00, 0x0a, 0x00, 0x00, 0x00, 0x26, 0x00, 0x00, 0x00,
    0x6d, 0x6f, 0x64, 0x65, 0x6c, 0x2f, 0x64, 0x65, 0x6e, 0x73, 0x65, 0x2f,
    0x4d, 0x61, 0x74, 0x4d, 0x75, 0x6c, 0x3b, 0x6d, 0x6f, 0x64, 0x65, 0x6c,
    0x2f, 0x64, 0x65, 0x6e, 0x73, 0x65, 0x2f, 0x42, 0x69, 0x61, 0x73, 0x41,
    0x64, 0x64, 0x00, 0x00, 0x02, 0x00, 0x00, 0x00, 0xff, 0xff, 0xff, 0xff,
    0x0a, 0x00, 0x00, 0x00, 0x1c, 0x8b, 0xff, 0xff, 0x08, 0x00, 0x00, 0x00,
    0x0c, 0x00, 0x00, 0x00, 0x01, 0x00, 0x00, 0x00, 0x12, 0x0b, 0xe6, 0x3d,
    0x01, 0x00, 0x00, 0x00, 0x3a, 0x00, 0x00, 0x00, 0x00, 0x00, 0x00, 0x00,
    0x00, 0x00, 0x00, 0x00, 0x00, 0x00, 0x0e, 0x00, 0x18, 0x00, 0x08, 0x00,
    0x0c, 0x00, 0x10, 0x00, 0x07, 0x00, 0x14, 0x00, 0x0e, 0x00, 0x00, 0x00,
    0x00, 0x00, 0x00, 0x1b, 0x01, 0x00, 0x00, 0x00, 0x18, 0x00, 0x00, 0x00,
    0x0c, 0x00, 0x00, 0x00, 0x04, 0x00, 0x00, 0x00, 0x3c, 0x8b, 0xff, 0xff,
    0x01, 0x00, 0x00, 0x00, 0x0d, 0x00, 0x00, 0x00, 0x02, 0x00, 0x00, 0x00,
    0x0c, 0x00, 0x00, 0x00, 0x01, 0x00, 0x00, 0x00, 0xc8, 0xfc, 0xff, 0xff,
    0x28, 0x00, 0x00, 0x00, 0x00, 0x00, 0x00, 0x28, 0x02, 0x00, 0x00, 0x00,
    0x08, 0x8c, 0xff, 0xff, 0x00, 0x00, 0x00, 0x09, 0x14, 0x00, 0x00, 0x00,
    0x0e, 0x00, 0x00, 0x00, 0x18, 0x00, 0x00, 0x00, 0x48, 0x00, 0x00, 0x00,
    0x38, 0x00, 0x00, 0x00, 0x02, 0x00, 0x00, 0x00, 0x01, 0x00, 0x00, 0x00,
    0x40, 0x00, 0x00, 0x00, 0x23, 0x00, 0x00, 0x00, 0x6d, 0x6f, 0x64, 0x65,
    0x6c, 0x2f, 0x67, 0x6c, 0x6f, 0x62, 0x61, 0x6c, 0x5f, 0x61, 0x76, 0x65,
    0x72, 0x61, 0x67, 0x65, 0x5f, 0x70, 0x6f, 0x6f, 0x6c, 0x69, 0x6e, 0x67,
    0x32, 0x64, 0x2f, 0x4d, 0x65, 0x61, 0x6e, 0x00, 0x02, 0x00, 0x00, 0x00,
    0xff, 0xff, 0xff, 0xff, 0x40, 0x00, 0x00, 0x00, 0xec, 0x8b, 0xff, 0xff,
    0x08, 0x00, 0x00, 0x00, 0x0c, 0x00, 0x00, 0x00, 0x01, 0x00, 0x00, 0x00,
    0x0a, 0xc3, 0x18, 0x3c, 0x01, 0x00, 0x00, 0x00, 0x80, 0xff, 0xff, 0xff,
    0xff, 0xff, 0xff, 0xff, 0xaa, 0xfd, 0xff, 0xff, 0x00, 0x00, 0x00, 0x01,
    0x24, 0x00, 0x00, 0x00, 0x18, 0x00, 0x00, 0x00, 0x04, 0x00, 0x00, 0x00,
    0x9c, 0xfd, 0xff, 0xff, 0x02, 0x00, 0x00, 0x00, 0x02, 0x00, 0x00, 0x00,
    0x00, 0x00, 0x00, 0x01, 0x01, 0x00, 0x00, 0x00, 0x0c, 0x00, 0x00, 0x00,
    0x03, 0x00, 0x00, 0x00, 0x0b, 0x00, 0x00, 0x00, 0x06, 0x00, 0x00, 0x00,
    0x07, 0x00, 0x00, 0x00, 0xc0, 0x8c, 0xff, 0xff, 0x00, 0x00, 0x00, 0x09,
    0x14, 0x00, 0x00, 0x00, 0x0d, 0x00, 0x00, 0x00, 0x20, 0x00, 0x00, 0x00,
    0xb8, 0x00, 0x00, 0x00, 0xa0, 0x00, 0x00, 0x00, 0x04, 0x00, 0x00, 0x00,
    0x01, 0x00, 0x00, 0x00, 0x04, 0x00, 0x00, 0x00, 0x04, 0x00, 0x00, 0x00,
    0x40, 0x00, 0x00, 0x00, 0x80, 0x00, 0x00, 0x00, 0x6d, 0x6f, 0x64, 0x65,
    0x6c, 0x2f, 0x61, 0x63, 0x74, 0x69, 0x76, 0x61, 0x74, 0x69, 0x6f, 0x6e,
    0x5f, 0x32, 0x2f, 0x52, 0x65, 0x6c, 0x75, 0x3b, 0x6d, 0x6f, 0x64, 0x65,
    0x6c, 0x2f, 0x62, 0x61, 0x74, 0x63, 0x68, 0x5f, 0x6e, 0x6f, 0x72, 0x6d,
    0x61, 0x6c, 0x69, 0x7a, 0x61, 0x74, 0x69, 0x6f, 0x6e, 0x5f, 0x32, 0x2f,
    0x46, 0x75, 0x73, 0x65, 0x64, 0x42, 0x61, 0x74, 0x63, 0x68, 0x4e, 0x6f,
    0x72, 0x6d, 0x56, 0x33, 0x3b, 0x63, 0x6f, 0x6e, 0x76, 0x32, 0x64, 0x5f,
    0x32, 0x2f, 0x62, 0x69, 0x61, 0x73, 0x3b, 0x6d, 0x6f, 0x64, 0x65, 0x6c,
    0x2f, 0x63, 0x6f, 0x6e, 0x76, 0x32, 0x64, 0x5f, 0x32, 0x2f, 0x42, 0x69,
    0x61, 0x73, 0x41, 0x64, 0x64, 0x3b, 0x6d, 0x6f, 0x64, 0x65, 0x6c, 0x2f,
    0x63, 0x6f, 0x6e, 0x76, 0x32, 0x64, 0x5f, 0x32, 0x2f, 0x43, 0x6f, 0x6e,
    0x76, 0x32, 0x44, 0x31, 0x00, 0x00, 0x00, 0x00, 0x04, 0x00, 0x00, 0x00,
    0xff, 0xff, 0xff, 0xff, 0x04, 0x00, 0x00, 0x00, 0x04, 0x00, 0x00, 0x00,
    0x40, 0x00, 0x00, 0x00, 0x14, 0x8d, 0xff, 0xff, 0x08, 0x00, 0x00, 0x00,
    0x0c, 0x00, 0x00, 0x00, 0x01, 0x00, 0x00, 0x00, 0x9f, 0x0a, 0x50, 0x3d,
    0x01, 0x00, 0x00, 0x00, 0x80, 0xff, 0xff, 0xff, 0xff, 0xff, 0xff, 0xff,
    0xd2, 0xfe, 0xff, 0xff, 0x00, 0x00, 0x00, 0x01, 0x24, 0x00, 0x00, 0x00,
    0x18, 0x00, 0x00, 0x00, 0x04, 0x00, 0x00, 0x00, 0xc4, 0xfe, 0xff, 0xff,
    0x02, 0x00, 0x00, 0x00, 0x02, 0x00, 0x00, 0x00, 0x00, 0x00, 0x00, 0x01,
    0x01, 0x00, 0x00, 0x00, 0x0b, 0x00, 0x00, 0x00, 0x03, 0x00, 0x00, 0x00,
    0x0a, 0x00, 0x00, 0x00, 0x04, 0x00, 0x00, 0x00, 0x05, 0x00, 0x00, 0x00,
    0xe8, 0x8d, 0xff, 0xff, 0x00, 0x00, 0x00, 0x09, 0x14, 0x00, 0x00, 0x00,
    0x0c, 0x00, 0x00, 0x00, 0x20, 0x00, 0x00, 0x00, 0xb8, 0x00, 0x00, 0x00,
    0xa0, 0x00, 0x00, 0x00, 0x04, 0x00, 0x00, 0x00, 0x01, 0x00, 0x00, 0x00,
    0x08, 0x00, 0x00, 0x00, 0x08, 0x00, 0x00, 0x00, 0x20, 0x00, 0x00, 0x00,
    0x80, 0x00, 0x00, 0x00, 0x6d, 0x6f, 0x64, 0x65, 0x6c, 0x2f, 0x61, 0x63,
    0x74, 0x69, 0x76, 0x61, 0x74, 0x69, 0x6f, 0x6e, 0x5f, 0x31, 0x2f, 0x52,
    0x65, 0x6c, 0x75, 0x3b, 0x6d, 0x6f, 0x64, 0x65, 0x6c, 0x2f, 0x62, 0x61,
    0x74, 0x63, 0x68, 0x5f, 0x6e, 0x6f, 0x72, 0x6d, 0x61, 0x6c, 0x69, 0x7a,
    0x61, 0x74, 0x69, 0x6f, 0x6e, 0x5f, 0x31, 0x2f, 0x46, 0x75, 0x73, 0x65,
    0x64, 0x42, 0x61, 0x74, 0x63, 0x68, 0x4e, 0x6f, 0x72, 0x6d, 0x56, 0x33,
    0x3b, 0x63, 0x6f, 0x6e, 0x76, 0x32, 0x64, 0x5f, 0x31, 0x2f, 0x62, 0x69,
    0x61, 0x73, 0x3b, 0x6d, 0x6f, 0x64, 0x65, 0x6c, 0x2f, 0x63, 0x6f, 0x6e,
    0x76, 0x32, 0x64, 0x5f, 0x31, 0x2f, 0x42, 0x69, 0x61, 0x73, 0x41, 0x64,
    0x64, 0x3b, 0x6d, 0x6f, 0x64, 0x65, 0x6c, 0x2f, 0x63, 0x6f, 0x6e, 0x76,
    0x32, 0x64, 0x5f, 0x31, 0x2f, 0x43, 0x6f, 0x6e, 0x76, 0x32, 0x44, 0x31,
    0x00, 0x00, 0x00, 0x00, 0x04, 0x00, 0x00, 0x00, 0xff, 0xff, 0xff, 0xff,
    0x08, 0x00, 0x00, 0x00, 0x08, 0x00, 0x00, 0x00, 0x20, 0x00, 0x00, 0x00,
    0x3c, 0x8e, 0xff, 0xff, 0x08, 0x00, 0x00, 0x00, 0x0c, 0x00, 0x00, 0x00,
    0x01, 0x00, 0x00, 0x00, 0x07, 0xdf, 0x24, 0x3c, 0x01, 0x00, 0x00, 0x00,
    0x80, 0xff, 0xff, 0xff, 0xff, 0xff, 0xff, 0xff, 0x00, 0x00, 0x00, 0x00,
    0x00, 0x00, 0x0e, 0x00, 0x14, 0x00, 0x00, 0x00, 0x08, 0x00, 0x0c, 0x00,
    0x07, 0x00, 0x10, 0x00, 0x0e, 0x00, 0x00, 0x00, 0x00, 0x00, 0x00, 0x01,
    0x30, 0x00, 0x00, 0x00, 0x24, 0x00, 0x00, 0x00, 0x10, 0x00, 0x00, 0x00,
    0x0c, 0x00, 0x10, 0x00, 0x00, 0x00, 0x04, 0x00, 0x08, 0x00, 0x0f, 0x00,
    0x0c, 0x00, 0x00, 0x00, 0x02, 0x00, 0x00, 0x00, 0x02, 0x00, 0x00, 0x00,
    0x00, 0x00, 0x00, 0x01, 0x01, 0x00, 0x00, 0x00, 0x0a, 0x00, 0x00, 0x00,
    0x03, 0x00, 0x00, 0x00, 0x00, 0x00, 0x00, 0x00, 0x02, 0x00, 0x00, 0x00,
    0x03, 0x00, 0x00, 0x00, 0x0c, 0x00, 0x10, 0x00, 0x0b, 0x00, 0x00, 0x00,
    0x0c, 0x00, 0x04, 0x00, 0x0c, 0x00, 0x00, 0x00, 0x03, 0x00, 0x00, 0x00,
    0x00, 0x00, 0x00, 0x03, 0x03, 0x00, 0x00, 0x00, 0x4c, 0x8f, 0xff, 0xff,
    0x00, 0x00, 0x00, 0x09, 0x14, 0x00, 0x00, 0x00, 0x0b, 0x00, 0x00, 0x00,
    0x20, 0x00, 0x00, 0x00, 0xac, 0x00, 0x00, 0x00, 0x94, 0x00, 0x00, 0x00,
    0x04, 0x00, 0x00, 0x00, 0x01, 0x00, 0x00, 0x00, 0x10, 0x00, 0x00, 0x00,
    0x10, 0x00, 0x00, 0x00, 0x10, 0x00, 0x00, 0x00, 0x76, 0x00, 0x00, 0x00,
    0x6d, 0x6f, 0x64, 0x65, 0x6c, 0x2f, 0x61, 0x63, 0x74, 0x69, 0x76, 0x61,
    0x74, 0x69, 0x6f, 0x6e, 0x2f, 0x52, 0x65, 0x6c, 0x75, 0x3b, 0x6d, 0x6f,
    0x64, 0x65, 0x6c, 0x2f, 0x62, 0x61, 0x74, 0x63, 0x68, 0x5f, 0x6e, 0x6f,
    0x72, 0x6d, 0x61, 0x6c, 0x69, 0x7a, 0x61, 0x74, 0x69, 0x6f, 0x6e, 0x2f,
    0x46, 0x75, 0x73, 0x65, 0x64, 0x42, 0x61, 0x74, 0x63, 0x68, 0x4e, 0x6f,
    0x72, 0x6d, 0x56, 0x33, 0x3b, 0x63, 0x6f, 0x6e, 0x76, 0x32, 0x64, 0x2f,
    0x62, 0x69, 0x61, 0x73, 0x3b, 0x6d, 0x6f, 0x64, 0x65, 0x6c, 0x2f, 0x63,
    0x6f, 0x6e, 0x76, 0x32, 0x64, 0x2f, 0x42, 0x69, 0x61, 0x73, 0x41, 0x64,
    0x64, 0x3b, 0x6d, 0x6f, 0x64, 0x65, 0x6c, 0x2f, 0x63, 0x6f, 0x6e, 0x76,
    0x32, 0x64, 0x2f, 0x43, 0x6f, 0x6e, 0x76, 0x32, 0x44, 0x32, 0x00, 0x00,
    0x04, 0x00, 0x00, 0x00, 0xff, 0xff, 0xff, 0xff, 0x10, 0x00, 0x00, 0x00,
    0x10, 0x00, 0x00, 0x00, 0x10, 0x00, 0x00, 0x00, 0x94, 0x8f, 0xff, 0xff,
    0x08, 0x00, 0x00, 0x00, 0x0c, 0x00, 0x00, 0x00, 0x01, 0x00, 0x00, 0x00,
    0x47, 0xb1, 0x5b, 0x3d, 0x01, 0x00, 0x00, 0x00, 0x80, 0xff, 0xff, 0xff,
    0xff, 0xff, 0xff, 0xff, 0x00, 0x00, 0x00, 0x00, 0xba, 0x90, 0xff, 0xff,
    0x04, 0x00, 0x00, 0x00, 0x28, 0x00, 0x00, 0x00, 0x5a, 0xdf, 0xff, 0xff,
    0x44, 0x05, 0x00, 0x00, 0x31, 0xee, 0xff, 0xff, 0x10, 0xf3, 0xff, 0xff,
    0x31, 0xec, 0xff, 0xff, 0x86, 0xea, 0xff, 0xff, 0x34, 0x01, 0x00, 0x00,
    0x98, 0xfe, 0xff, 0xff, 0xe1, 0xe9, 0xff, 0xff, 0x36, 0xf0, 0xff, 0xff,
    0xd2, 0x90, 0xff, 0xff, 0x00, 0x00, 0x00, 0x02, 0x10, 0x00, 0x00, 0x00,
    0x0a, 0x00, 0x00, 0x00, 0x10, 0x00, 0x00, 0x00, 0x1c, 0x00, 0x00, 0x00,
    0x01, 0x00, 0x00, 0x00, 0x0a, 0x00, 0x00, 0x00, 0x0a, 0x00, 0x00, 0x00,
    0x64, 0x65, 0x6e, 0x73, 0x65, 0x2f, 0x62, 0x69, 0x61, 0x73, 0x00, 0x00,
    0x1c, 0x90, 0xff, 0xff, 0x08, 0x00, 0x00, 0x00, 0x0c, 0x00, 0x00, 0x00,
    0x01, 0x00, 0x00, 0x00, 0x41, 0xaf, 0xe2, 0x38, 0x01, 0x00, 0x00, 0x00,
    0x00, 0x00, 0x00, 0x00, 0x00, 0x00, 0x00, 0x00, 0x3e, 0x91, 0xff, 0xff,
    0x04, 0x00, 0x00, 0x00, 0x80, 0x02, 0x00, 0x00, 0xfd, 0x11, 0x10, 0x9c,
    0x0c, 0x05, 0xf9, 0xfd, 0x09, 0x10, 0x02, 0x1b, 0xee, 0xfc, 0x18, 0x08,
    0xc5, 0x0c, 0x12, 0xf8, 0xf8, 0x12, 0x87, 0x08, 0x26, 0x1f, 0x08, 0xdd,
    0x14, 0xb7, 0x20, 0x09, 0x18, 0x01, 0x9a, 0xfb, 0xd9, 0xf4, 0xda, 0x8f,
    0x02, 0xe6, 0xdd, 0x28, 0x90, 0xeb, 0x10, 0xfe, 0x06, 0x13, 0xae, 0xd7,
    0xf7, 0xad, 0xf7, 0xc1, 0xe4, 0xba, 0x01, 0xa4, 0x03, 0x03, 0x01, 0xe1,
    0xaf, 0x13, 0x0e, 0xde, 0x14, 0x21, 0xad, 0xc1, 0xab, 0x1b, 0xbf, 0x14,
    0x98, 0xb1, 0xe7, 0xa5, 0x20, 0xdf, 0xae, 0x18, 0xbf, 0x29, 0x0b, 0x1c,
    0xa6, 0xc9, 0xa1, 0xcf, 0xb3, 0x17, 0x12, 0xcb, 0x9f, 0x9f, 0x07, 0xb3,
    0xbf, 0x27, 0xc9, 0x05, 0x1c, 0xdf, 0xac, 0xb5, 0x05, 0xb8, 0xad, 0xb2,
    0x16, 0x14, 0xda, 0xfd, 0xa1, 0x15, 0xb1, 0xba, 0x06, 0x01, 0xa4, 0x0f,
    0xa3, 0x21, 0x1c, 0x02, 0x22, 0xbe, 0xfc, 0xb0, 0xad, 0x22, 0x0c, 0xac,
    0x04, 0x15, 0xbd, 0xd8, 0x09, 0x19, 0x03, 0x0d, 0xb9, 0x0c, 0xdb, 0xba,
    0xce, 0x1e, 0x06, 0x21, 0xf7, 0x11, 0xc5, 0x15, 0x15, 0xeb, 0xbc, 0xd3,
    0x1b, 0x13, 0x12, 0x08, 0xbc, 0xd0, 0x1a, 0x12, 0xc9, 0x00, 0xbb, 0xad,
    0x17, 0xa7, 0x08, 0x14, 0xd5, 0xbe, 0xdc, 0x21, 0xa6, 0xdc, 0x1d, 0xc7,
    0xb9, 0xbd, 0xc5, 0xfe, 0xc3, 0xb5, 0xe5, 0xa9, 0xaf, 0x1f, 0x17, 0x1b,
    0x1b, 0xc2, 0x08, 0xb1, 0xcd, 0x0b, 0xe4, 0xd0, 0x12, 0xd7, 0x0c, 0x07,
    0x2b, 0x03, 0x25, 0xfc, 0xfd, 0xcf, 0xfd, 0xa6, 0x2d, 0xc3, 0xab, 0xf9,
    0xfc, 0xde, 0xfc, 0xf3, 0xc7, 0x94, 0x01, 0x13, 0xb3, 0xaf, 0x1e, 0x03,
    0xa9, 0x15, 0xc1, 0xea, 0xf8, 0xad, 0x14, 0xa7, 0xbb, 0x9a, 0x0b, 0xd6,
    0xcf, 0x11, 0x0d, 0x15, 0x9c, 0xc1, 0x14, 0x07, 0xab, 0xc9, 0xca, 0xd3,
    0x22, 0xa2, 0x93, 0x09, 0x13, 0xe2, 0xb6, 0x1a, 0x2a, 0x90, 0x02, 0x13,
    0xac, 0xb0, 0xc5, 0xb2, 0x0f, 0xbe, 0xd1, 0xd8, 0xa6, 0x0f, 0xe1, 0x10,
    0x26, 0xd4, 0xc8, 0x15, 0x16, 0x06, 0xff, 0xae, 0xee, 0xcd, 0x11, 0xbb,
    0xc3, 0xc3, 0x2d, 0xca, 0xd9, 0xc7, 0x16, 0x22, 0xdc, 0x25, 0x14, 0x0f,
    0xb7, 0x00, 0x20, 0x0d, 0x2d, 0xf0, 0xa9, 0xfd, 0xcf, 0x0f, 0xbc, 0xf5,
    0x0f, 0x10, 0x92, 0x19, 0xcb, 0xcb, 0x8a, 0x0d, 0xc6, 0xaa, 0x0a, 0xc9,
    0xbc, 0x97, 0xc8, 0x1d, 0xfa, 0x18, 0x12, 0x87, 0xd8, 0x8c, 0xc5, 0x12,
    0x1c, 0xc9, 0x0e, 0xa9, 0xe2, 0xa9, 0xcc, 0x0f, 0x14, 0xff, 0x15, 0x1c,
    0xab, 0xb5, 0x07, 0x03, 0x24, 0xbb, 0xec, 0x0d, 0xa3, 0xea, 0x0e, 0x24,
    0x15, 0x14, 0xf7, 0xea, 0x11, 0x8c, 0x16, 0xcd, 0xda, 0x00, 0x08, 0x12,
    0xee, 0xe7, 0xf7, 0x03, 0xbf, 0xc8, 0x22, 0x1d, 0x07, 0x09, 0xff, 0x9e,
    0xe5, 0xc2, 0x11, 0xd2, 0xe2, 0xd3, 0x39, 0x12, 0x12, 0xbe, 0x17, 0xf0,
    0xcf, 0x04, 0xf9, 0xa6, 0xda, 0xdf, 0xcd, 0xfc, 0xf2, 0xdb, 0xbf, 0x0f,
    0xc0, 0x0f, 0xb6, 0xf6, 0xcd, 0x17, 0xb3, 0x18, 0x18, 0xc6, 0xd3, 0xe7,
    0x08, 0x1d, 0x14, 0xbd, 0xa8, 0x12, 0xb8, 0x12, 0x12, 0x01, 0x81, 0x0d,
    0xb2, 0xbd, 0xcd, 0xae, 0x1d, 0x35, 0x08, 0xc2, 0xd9, 0xda, 0xf7, 0x02,
    0xc7, 0xa7, 0xc9, 0x10, 0x03, 0x14, 0x0f, 0xb5, 0x27, 0xcf, 0x35, 0xc1,
    0xb6, 0xca, 0xc0, 0x05, 0xf2, 0x15, 0x1e, 0x17, 0x18, 0xa7, 0x09, 0xa6,
    0xdb, 0x21, 0x27, 0xd1, 0xc0, 0x13, 0xb8, 0x24, 0x1d, 0x19, 0x05, 0xc6,
    0xd8, 0x17, 0xa8, 0x0b, 0xa9, 0xd2, 0x9d, 0x19, 0x0e, 0xdc, 0xad, 0xaa,
    0xae, 0xc4, 0x00, 0xb7, 0x0d, 0xf6, 0xbc, 0xd6, 0xd3, 0xdf, 0xa9, 0x0f,
    0xf3, 0x15, 0xd3, 0xc6, 0x16, 0x07, 0x05, 0xfb, 0xbc, 0xc8, 0xc3, 0x1e,
    0xf4, 0xfb, 0xe5, 0xb4, 0xf9, 0x1c, 0xb4, 0x0d, 0xfc, 0x0a, 0x04, 0x16,
    0x1a, 0xe3, 0xc8, 0x07, 0xd1, 0xe1, 0x12, 0xb0, 0xb5, 0xb0, 0xcc, 0x06,
    0xe1, 0x04, 0xa8, 0xd7, 0x1c, 0x1c, 0xda, 0xa8, 0x14, 0xb8, 0x0e, 0xd8,
    0xbf, 0x16, 0xd2, 0x04, 0xfd, 0xfe, 0x2a, 0xc5, 0x26, 0xba, 0x21, 0xba,
    0x0d, 0xe2, 0x15, 0xb0, 0x17, 0xbf, 0x0e, 0x1a, 0xb8, 0xc2, 0xf4, 0x0b,
    0xfc, 0xe7, 0xa3, 0x1e, 0xb9, 0x05, 0xdb, 0xa2, 0x0a, 0x1b, 0x9f, 0x0e,
    0xe0, 0x9d, 0xa9, 0xbc, 0xa6, 0xca, 0x15, 0xbc, 0xce, 0x11, 0x2c, 0x90,
    0x0b, 0xf1, 0x19, 0xa0, 0x09, 0xfd, 0xfb, 0xb3, 0xa7, 0xbb, 0xc0, 0xfa,
    0xd0, 0x1e, 0x04, 0xf2, 0x0d, 0xbe, 0x10, 0x06, 0xbe, 0x21, 0xf6, 0x1a,
    0xe6, 0x11, 0xf5, 0x25, 0x2e, 0x1b, 0x19, 0x03, 0x1c, 0xe5, 0x96, 0x92,
    0xae, 0x93, 0xff, 0xff, 0x00, 0x00, 0x00, 0x09, 0x10, 0x00, 0x00, 0x00,
    0x09, 0x00, 0x00, 0x00, 0x14, 0x00, 0x00, 0x00, 0x28, 0x00, 0x00, 0x00,
    0x02, 0x00, 0x00, 0x00, 0x0a, 0x00, 0x00, 0x00, 0x40, 0x00, 0x00, 0x00,
    0x12, 0x00, 0x00, 0x00, 0x6d, 0x6f, 0x64, 0x65, 0x6c, 0x2f, 0x64, 0x65,
    0x6e, 0x73, 0x65, 0x2f, 0x4d, 0x61, 0x74, 0x4d, 0x75, 0x6c, 0x00, 0x00,
    0x04, 0x93, 0xff, 0xff, 0x08, 0x00, 0x00, 0x00, 0x0c, 0x00, 0x00, 0x00,
    0x01, 0x00, 0x00, 0x00, 0xb4, 0xf0, 0x3d, 0x3c, 0x01, 0x00, 0x00, 0x00,
    0x00, 0x00, 0x00, 0x00, 0x00, 0x00, 0x00, 0x00, 0x00, 0x00, 0x00, 0x00,
    0x2a, 0x94, 0xff, 0xff, 0x04, 0x00, 0x00, 0x00, 0x00, 0x01, 0x00, 0x00,
    0xe9, 0x01, 0x00, 0x00, 0xfb, 0x07, 0x00, 0x00, 0x42, 0x05, 0x00, 0x00,
    0x3c, 0xe7, 0xff, 0xff, 0x6e, 0xf8, 0xff, 0xff, 0xa8, 0xf0, 0xff, 0xff,
    0x13, 0xfa, 0xff, 0xff, 0x06, 0xfe, 0xff, 0xff, 0xca, 0xfd, 0xff, 0xff,
    0xcd, 0x02, 0x00, 0x00, 0x44, 0x00, 0x00, 0x00, 0xc1, 0xf8, 0xff, 0xff,
    0xfb, 0xfe, 0xff, 0xff, 0x13, 0xfb, 0xff, 0xff, 0x99, 0xff, 0xff, 0xff,
    0x75, 0x05, 0x00, 0x00, 0x73, 0xf4, 0xff, 0xff, 0x3e, 0x08, 0x00, 0x00,
    0x41, 0x07, 0x00, 0x00, 0xae, 0xee, 0xff, 0xff, 0xc3, 0xf3, 0xff, 0xff,
    0xa3, 0xfa, 0xff, 0xff, 0xf1, 0xf5, 0xff, 0xff, 0xdb, 0xfe, 0xff, 0xff,
    0xae, 0x03, 0x00, 0x00, 0x25, 0xfe, 0xff, 0xff, 0xb8, 0xfd, 0xff, 0xff,
    0xa6, 0xf5, 0xff, 0xff, 0x51, 0xee, 0xff, 0xff, 0xcd, 0xff, 0xff, 0xff,
    0xd2, 0xef, 0xff, 0xff, 0x80, 0xf6, 0xff, 0xff, 0x90, 0xfd, 0xff, 0xff,
    0x8c, 0xfe, 0xff, 0xff, 0x42, 0xf1, 0xff, 0xff, 0x43, 0x00, 0x00, 0x00,
    0xa6, 0xff, 0xff, 0xff, 0x05, 0xfb, 0xff, 0xff, 0x7e, 0xf1, 0xff, 0xff,
    0x93, 0xf5, 0xff, 0xff, 0x65, 0x03, 0x00, 0x00, 0x92, 0xf2, 0xff, 0xff,
    0x13, 0xfa, 0xff, 0xff, 0xd4, 0xeb, 0xff, 0xff, 0x81, 0xef, 0xff, 0xff,
    0x9f, 0xfb, 0xff, 0xff, 0xa5, 0xf6, 0xff, 0xff, 0x14, 0x01, 0x00, 0x00,
    0x29, 0xfe, 0xff, 0xff, 0xe2, 0x00, 0x00, 0x00, 0x2b, 0xef, 0xff, 0xff,
    0x96, 0xec, 0xff, 0xff, 0xa0, 0x02, 0x00, 0x00, 0xbd, 0xf4, 0xff, 0xff,
    0x8e, 0xfb, 0xff, 0xff, 0x23, 0xe7, 0xff, 0xff, 0xa9, 0xf6, 0xff, 0xff,
    0xc4, 0xf5, 0xff, 0xff, 0x41, 0x02, 0x00, 0x00, 0xe4, 0xf7, 0xff, 0xff,
    0xbc, 0x00, 0x00, 0x00, 0x1d, 0xf4, 0xff, 0xff, 0xea, 0xf9, 0xff, 0xff,
    0x59, 0xf7, 0xff, 0xff, 0x1a, 0x95, 0xff, 0xff, 0x00, 0x00, 0x00, 0x02,
    0x10, 0x00, 0x00, 0x00, 0x08, 0x00, 0x00, 0x00, 0x10, 0x00, 0x00, 0x00,
    0x90, 0x00, 0x00, 0x00, 0x01, 0x00, 0x00, 0x00, 0x40, 0x00, 0x00, 0x00,
    0x7f, 0x00, 0x00, 0x00, 0x6d, 0x6f, 0x64, 0x65, 0x6c, 0x2f, 0x61, 0x63,
    0x74, 0x69, 0x76, 0x61, 0x74, 0x69, 0x6f, 0x6e, 0x5f, 0x32, 0x2f, 0x52,
    0x65, 0x6c, 0x75, 0x3b, 0x6d, 0x6f, 0x64, 0x65, 0x6c, 0x2f, 0x62, 0x61,
    0x74, 0x63, 0x68, 0x5f, 0x6e, 0x6f, 0x72, 0x6d, 0x61, 0x6c, 0x69, 0x7a,
    0x61, 0x74, 0x69, 0x6f, 0x6e, 0x5f, 0x32, 0x2f, 0x46, 0x75, 0x73, 0x65,
    0x64, 0x42, 0x61, 0x74, 0x63, 0x68, 0x4e, 0x6f, 0x72, 0x6d, 0x56, 0x33,
    0x3b, 0x63, 0x6f, 0x6e, 0x76, 0x32, 0x64, 0x5f, 0x32, 0x2f, 0x62, 0x69,
    0x61, 0x73, 0x3b, 0x6d, 0x6f, 0x64, 0x65, 0x6c, 0x2f, 0x63, 0x6f, 0x6e,
    0x76, 0x32, 0x64, 0x5f, 0x32, 0x2f, 0x42, 0x69, 0x61, 0x73, 0x41, 0x64,
    0x64, 0x3b, 0x6d, 0x6f, 0x64, 0x65, 0x6c, 0x2f, 0x63, 0x6f, 0x6e, 0x76,
    0x32, 0x64, 0x5f, 0x32, 0x2f, 0x43, 0x6f, 0x6e, 0x76, 0x32, 0x44, 0x00,
    0xd8, 0x94, 0xff, 0xff, 0x08, 0x00, 0x00, 0x00, 0x08, 0x01, 0x00, 0x00,
    0x40, 0x00, 0x00, 0x00, 0x4c, 0x5d, 0x06, 0x39, 0xf5, 0x73, 0x03, 0x39,
    0x79, 0x31, 0x0a, 0x39, 0x60, 0xd6, 0xf8, 0x38, 0x45, 0x5f, 0x24, 0x39,
    0x7d, 0xca, 0xfa, 0x38, 0xa6, 0x58, 0xfa, 0x38, 0xb0, 0xa4, 0x0c, 0x39,
    0x88, 0xf1, 0x01, 0x39, 0x62, 0xe2, 0xe0, 0x38, 0x08, 0xe8, 0xdd, 0x38,
    0x54, 0x03, 0x14, 0x39, 0x6a, 0xad, 0xe7, 0x38, 0xf6, 0xf4, 0xf1, 0x38,
    0xe4, 0x84, 0xee, 0x38, 0x80, 0xba, 0x17, 0x39, 0x74, 0xe1, 0x23, 0x39,
    0x91, 0x30, 0x1f, 0x39, 0x5d, 0x23, 0x18, 0x39, 0xca, 0x32, 0x0f, 0x39,
    0xe6, 0xac, 0xf1, 0x38, 0xcf, 0x67, 0x18, 0x39, 0x83, 0x61, 0xe2, 0x38,
    0xec, 0x4b, 0x1e, 0x39, 0x77, 0x65, 0xf6, 0x38, 0xfb, 0xba, 0x0a, 0x39,
    0x88, 0x47, 0xdd, 0x38, 0x8e, 0xda, 0x06, 0x39, 0xa1, 0xc4, 0x18, 0x39,
    0x1c, 0xcf, 0x13, 0x39, 0x1d, 0x16, 0x0e, 0x39, 0x8f, 0x16, 0x04, 0x39,
    0xec, 0x47, 0x0d, 0x39, 0x6c, 0x30, 0xbb, 0x38, 0x46, 0xe5, 0x00, 0x39,
    0xe9, 0x16, 0xf9, 0x38, 0x5c, 0x5d, 0xd1, 0x38, 0xb6, 0x54, 0x13, 0x39,
    0x2c, 0x83, 0xd3, 0x38, 0x24, 0xe1, 0xce, 0x38, 0x37, 0x2f, 0x1f, 0x39,
    0x0d, 0xcd, 0xf9, 0x38, 0x8d, 0x4a, 0x07, 0x39, 0x70, 0xc0, 0xf9, 0x38,
    0xa6, 0x21, 0xe0, 0x38, 0x19, 0xf1, 0xe5, 0x38, 0x87, 0x56, 0xf1, 0x38,
    0xee, 0x11, 0x16, 0x39, 0x44, 0xc2, 0x0a, 0x39, 0x9d, 0xdc, 0x0c, 0x39,
    0x25, 0xf1, 0xd6, 0x38, 0x2c, 0x2e, 0xec, 0x38, 0x6e, 0xee, 0xc6, 0x38,
    0x65, 0x77, 0x0f, 0x39, 0xf9, 0x7e, 0x1c, 0x39, 0x51, 0x7b, 0xec, 0x38,
    0x0f, 0xac, 0xfd, 0x38, 0x75, 0xef, 0xde, 0x38, 0x13, 0xa4, 0x15, 0x39,
    0xcd, 0x7a, 0x21, 0x39, 0x5c, 0x79, 0x0d, 0x39, 0x50, 0x85, 0xf6, 0x38,
    0x5e, 0xf5, 0x0f, 0x39, 0x87, 0x0a, 0xd5, 0x38, 0x40, 0x00, 0x00, 0x00,
    0x00, 0x00, 0x00, 0x00, 0x00, 0x00, 0x00, 0x00, 0x00, 0x00, 0x00, 0x00,
    0x00, 0x00, 0x00, 0x00, 0x00, 0x00, 0x00, 0x00, 0x00, 0x00, 0x00, 0x00,
    0x00, 0x00, 0x00, 0x00, 0x00, 0x00, 0x00, 0x00, 0x00, 0x00, 0x00, 0x00,
    0x00, 0x00, 0x00, 0x00, 0x00, 0x00, 0x00, 0x00, 0x00, 0x00, 0x00, 0x00,
    0x00, 0x00, 0x00, 0x00, 0x00, 0x00, 0x00, 0x00, 0x00, 0x00, 0x00, 0x00,
    0x00, 0x00, 0x00, 0x00, 0x00, 0x00, 0x00, 0x00, 0x00, 0x00, 0x00, 0x00,
    0x00, 0x00, 0x00, 0x00, 0x00, 0x00, 0x00, 0x00, 0x00, 0x00, 0x00, 0x00,
    0x00, 0x00, 0x00, 0x00, 0x00, 0x00, 0x00, 0x00, 0x00, 0x00, 0x00, 0x00,
    0x00, 0x00, 0x00, 0x00, 0x00, 0x00, 0x00, 0x00, 0x00, 0x00, 0x00, 0x00,
    0x00, 0x00, 0x00, 0x00, 0x00, 0x00, 0x00, 0x00, 0x00, 0x00, 0x00, 0x00,
    0x00, 0x00, 0x00, 0x00, 0x00, 0x00, 0x00, 0x00, 0x00, 0x00, 0x00, 0x00,
    0x00, 0x00, 0x00, 0x00, 0x00, 0x00, 0x00, 0x00, 0x00, 0x00, 0x00, 0x00,
    0x00, 0x00, 0x00, 0x00, 0x00, 0x00, 0x00, 0x00, 0x00, 0x00, 0x00, 0x00,
    0x00, 0x00, 0x00, 0x00, 0x00, 0x00, 0x00, 0x00, 0x00, 0x00, 0x00, 0x00,
    0x00, 0x00, 0x00, 0x00, 0x00, 0x00, 0x00, 0x00, 0x00, 0x00, 0x00, 0x00,
    0x00, 0x00, 0x00, 0x00, 0x00, 0x00, 0x00, 0x00, 0x00, 0x00, 0x00, 0x00,
    0x00, 0x00, 0x00, 0x00, 0x00, 0x00, 0x00, 0x00, 0x00, 0x00, 0x00, 0x00,
    0x00, 0x00, 0x00, 0x00, 0x00, 0x00, 0x00, 0x00, 0x00, 0x00, 0x00, 0x00,
    0x00, 0x00, 0x00, 0x00, 0x00, 0x00, 0x00, 0x00, 0x00, 0x00, 0x00, 0x00,
    0x00, 0x00, 0x00, 0x00, 0x00, 0x00, 0x00, 0x00, 0x00, 0x00, 0x00, 0x00,
    0x00, 0x00, 0x00, 0x00, 0x00, 0x00, 0x00, 0x00, 0x00, 0x00, 0x00, 0x00,
    0x00, 0x00, 0x00, 0x00, 0x00, 0x00, 0x00, 0x00, 0x00, 0x00, 0x00, 0x00,
    0x00, 0x00, 0x00, 0x00, 0x00, 0x00, 0x00, 0x00, 0x00, 0x00, 0x00, 0x00,
    0x00, 0x00, 0x00, 0x00, 0x00, 0x00, 0x00, 0x00, 0x00, 0x00, 0x00, 0x00,
    0x00, 0x00, 0x00, 0x00, 0x00, 0x00, 0x00, 0x00, 0x00, 0x00, 0x00, 0x00,
    0x00, 0x00, 0x00, 0x00, 0x00, 0x00, 0x00, 0x00, 0x00, 0x00, 0x00, 0x00,
    0x00, 0x00, 0x00, 0x00, 0x00, 0x00, 0x00, 0x00, 0x00, 0x00, 0x00, 0x00,
    0x00, 0x00, 0x00, 0x00, 0x00, 0x00, 0x00, 0x00, 0x00, 0x00, 0x00, 0x00,
    0x00, 0x00, 0x00, 0x00, 0x00, 0x00, 0x00, 0x00, 0x00, 0x00, 0x00, 0x00,
    0x00, 0x00, 0x00, 0x00, 0x00, 0x00, 0x00, 0x00, 0x00, 0x00, 0x00, 0x00,
    0x00, 0x00, 0x00, 0x00, 0x00, 0x00, 0x00, 0x00, 0x00, 0x00, 0x00, 0x00,
    0x00, 0x00, 0x00, 0x00, 0x00, 0x00, 0x00, 0x00, 0x00, 0x00, 0x00, 0x00,
    0x00, 0x00, 0x00, 0x00, 0x00, 0x00, 0x00, 0x00, 0x00, 0x00, 0x00, 0x00,
    0x00, 0x00, 0x00, 0x00, 0x00, 0x00, 0x00, 0x00, 0x00, 0x00, 0x00, 0x00,
    0x00, 0x00, 0x00, 0x00, 0x00, 0x00, 0x00, 0x00, 0x00, 0x00, 0x00, 0x00,
    0x00, 0x00, 0x00, 0x00, 0x00, 0x00, 0x00, 0x00, 0x00, 0x00, 0x00, 0x00,
    0x00, 0x00, 0x00, 0x00, 0x00, 0x00, 0x00, 0x00, 0x00, 0x00, 0x00, 0x00,
    0x00, 0x00, 0x00, 0x00, 0x00, 0x00, 0x00, 0x00, 0x00, 0x00, 0x00, 0x00,
    0x00, 0x00, 0x00, 0x00, 0x00, 0x00, 0x00, 0x00, 0x00, 0x00, 0x00, 0x00,
    0x00, 0x00, 0x00, 0x00, 0x00, 0x00, 0x00, 0x00, 0x00, 0x00, 0x00, 0x00,
    0x00, 0x00, 0x00, 0x00, 0x00, 0x00, 0x00, 0x00, 0x00, 0x00, 0x00, 0x00,
    0x00, 0x00, 0x00, 0x00, 0x00, 0x00, 0x00, 0x00, 0x00, 0x00, 0x00, 0x00,
    0x00, 0x00, 0x00, 0x00, 0x00, 0x00, 0x00, 0x00, 0xee, 0x98, 0xff, 0xff,
    0x04, 0x00, 0x00, 0x00, 0x00, 0x48, 0x00, 0x00, 0x43, 0x2b, 0x15, 0x0a,
    0xef, 0x23, 0x2f, 0x08, 0xf1, 0x1e, 0xf0, 0x11, 0x20, 0x22, 0x2f, 0xfd,
    0x05, 0x25, 0xf8, 0xf8, 0xd0, 0x13, 0xf1, 0xda, 0xfa, 0xc7, 0x11, 0xe4,
    0xee, 0xff, 0xea, 0x1f, 0x08, 0x23, 0x35, 0xd1, 0x3d, 0x30, 0xe2, 0xf8,
    0x0f, 0xf6, 0xed, 0xe3, 0xdc, 0xf6, 0xe2, 0xbb, 0xe4, 0xe1, 0xb6, 0x38,
    0xc1, 0xeb, 0x40, 0xe3, 0x13, 0x04, 0xf2, 0xea, 0x04, 0xe6, 0xfa, 0xe5,
    0x18, 0x1e, 0x03, 0xd4, 0xf3, 0x0e, 0x14, 0x21, 0xe9, 0x24, 0xf0, 0xf7,
    0xfb, 0x05, 0x00, 0x0f, 0xf9, 0x23, 0xe3, 0x26, 0xda, 0xff, 0x13, 0xce,
    0x00, 0xe9, 0x1f, 0xf0, 0xf8, 0xe7, 0xeb, 0x0b, 0xdc, 0xf7, 0xff, 0x33,
    0x0f, 0xf8, 0xf1, 0x26, 0x12, 0x07, 0x1a, 0xde, 0xd6, 0x0b, 0x02, 0xfa,
    0xd3, 0x41, 0x27, 0x0a, 0x10, 0x18, 0x1e, 0x04, 0x35, 0x13, 0xeb, 0x15,
    0x06, 0xe3, 0x24, 0x1a, 0x2b, 0xc5, 0x0c, 0x35, 0xf2, 0xf4, 0x11, 0x13,
    0x0d, 0x01, 0xe1, 0xbf, 0x9e, 0x07, 0xdc, 0xdf, 0xde, 0x34, 0x39, 0x18,
    0xf6, 0x26, 0x00, 0xdc, 0x04, 0xf7, 0xf2, 0x23, 0x09, 0xe0, 0xf8, 0xce,
    0xf7, 0x30, 0xd5, 0x35, 0x23, 0x01, 0xe7, 0x28, 0x02, 0xf9, 0x19, 0xd3,
    0x11, 0xff, 0xe4, 0xff, 0xcd, 0x4b, 0x32, 0x35, 0x04, 0x7f, 0x13, 0xd8,
    0x48, 0x01, 0xf0, 0xfc, 0x18, 0x06, 0x18, 0x09, 0x3f, 0xfc, 0x19, 0xb2,
    0xf6, 0x3a, 0x0b, 0x1c, 0xf1, 0xf5, 0xee, 0xf0, 0xf9, 0x27, 0x09, 0xd0,
    0xf3, 0xe6, 0xee, 0x38, 0xa4, 0xef, 0xdc, 0xfd, 0xf2, 0x8d, 0xef, 0xe5,
    0xf9, 0xd0, 0xe1, 0x02, 0xe9, 0x31, 0x21, 0x9b, 0x60, 0x39, 0xd5, 0x1d,
    0xf8, 0xc2, 0xce, 0xd2, 0xc8, 0xb0, 0xdf, 0xc3, 0x11, 0xca, 0xa9, 0x51,
    0xc2, 0xcb, 0x1e, 0xe4, 0xf0, 0xe8, 0xd1, 0xc3, 0xe8, 0xc3, 0xd8, 0xd4,
    0x20, 0x1b, 0x29, 0xc0, 0xfc, 0x1a, 0x1c, 0x07, 0xfa, 0x17, 0xee, 0x06,
    0xf6, 0x0d, 0x2b, 0xf1, 0xef, 0x34, 0xdd, 0x36, 0xcd, 0x19, 0x0d, 0xb5,
    0xf1, 0xc3, 0xff, 0xe6, 0xe5, 0xdf, 0xcf, 0x16, 0xfd, 0x05, 0xe3, 0x0e,
    0x19, 0x3a, 0xe1, 0x24, 0x20, 0xe4, 0xe5, 0x23, 0x2f, 0x0a, 0x10, 0x02,
    0xeb, 0x07, 0x12, 0x1e, 0xc9, 0x2f, 0xfb, 0xe6, 0xeb, 0x02, 0x13, 0x02,
    0x07, 0xfc, 0x0c, 0x1a, 0xfa, 0xf2, 0xe8, 0x53, 0x12, 0x09, 0x07, 0x06,
    0x05, 0xb6, 0xfb, 0x0c, 0x13, 0xff, 0x49, 0xec, 0x05, 0x14, 0x57, 0xfe,
    0xd9, 0x29, 0xe6, 0xd6, 0x0e, 0x00, 0x04, 0x04, 0xf7, 0x61, 0x1e, 0x7f,
    0xe4, 0xef, 0x09, 0x28, 0xe8, 0x15, 0xef, 0x1f, 0xf9, 0xf1, 0xae, 0x0a,
    0x27, 0xfe, 0xed, 0x0c, 0x08, 0xe9, 0x1d, 0x04, 0xde, 0x2d, 0xd9, 0xf0,
    0xcc, 0xf2, 0x20, 0x15, 0xdc, 0x00, 0xfa, 0x03, 0xde, 0xf5, 0xdf, 0x11,
    0xf8, 0xec, 0xf3, 0xfb, 0xfe, 0xeb, 0xd1, 0x25, 0x23, 0x10, 0x1e, 0x0d,
    0xda, 0xbd, 0xf3, 0x3c, 0xea, 0xe9, 0xea, 0xf5, 0x2e, 0xef, 0x09, 0xc8,
    0x03, 0xe6, 0xd0, 0x2f, 0x11, 0x03, 0x0f, 0xfe, 0x14, 0x08, 0xce, 0x29,
    0x31, 0xeb, 0xe5, 0x0d, 0x08, 0x08, 0xfb, 0xfa, 0x03, 0x13, 0x62, 0xe8,
    0xe2, 0x19, 0xec, 0xe2, 0x36, 0xf8, 0x0a, 0xf7, 0xf2, 0x31, 0x11, 0x4c,
    0xf5, 0xef, 0xde, 0x10, 0xde, 0x01, 0xf8, 0xcb, 0xf7, 0xfa, 0xe1, 0x11,
    0xf8, 0xfc, 0x16, 0x06, 0xf3, 0xb9, 0xfc, 0x22, 0xfa, 0xf7, 0xf1, 0xf8,
    0x1b, 0x08, 0xfe, 0xe4, 0xfb, 0xf5, 0xcf, 0x13, 0xf1, 0xba, 0xcd, 0x33,
    0xda, 0xca, 0xa5, 0xe5, 0xfe, 0x9c, 0xe2, 0xfa, 0x2a, 0xe4, 0x13, 0xfd,
    0xdd, 0xbd, 0x27, 0xe4, 0x9e, 0x10, 0xd3, 0xf0, 0x04, 0xfa, 0xee, 0xce,
    0xf3, 0xb7, 0xc9, 0xe9, 0xc9, 0xee, 0xdd, 0x41, 0xdc, 0xd7, 0x25, 0x19,
    0x09, 0xe2, 0xbc, 0x30, 0xfc, 0x3e, 0x38, 0x17, 0x06, 0xd9, 0x45, 0xdd,
    0x1d, 0x16, 0xe9, 0xe3, 0xeb, 0xf4, 0xee, 0xad, 0xf1, 0x73, 0x15, 0x60,
    0xe5, 0xf4, 0x03, 0x20, 0xd0, 0xdf, 0xab, 0x14, 0xef, 0xd6, 0xbb, 0xe5,
    0x1b, 0x05, 0xde, 0xef, 0xf1, 0xc9, 0x09, 0xf0, 0xa2, 0x0e, 0xc4, 0x08,
    0xfe, 0xf1, 0x02, 0xf5, 0xfb, 0xbf, 0xd8, 0xf1, 0x04, 0x1d, 0xe6, 0xfa,
    0x0c, 0x12, 0xfc, 0x35, 0x1d, 0xf6, 0xdf, 0x1b, 0x59, 0x13, 0x06, 0x09,
    0x00, 0xff, 0x1c, 0x23, 0xc5, 0x2a, 0xee, 0xde, 0xee, 0xfd, 0x14, 0x0e,
    0xfb, 0x06, 0x0b, 0xfb, 0xf2, 0x25, 0xeb, 0x0a, 0xe7, 0xf4, 0xf8, 0x13,
    0x16, 0xec, 0x00, 0x21, 0x1b, 0x0e, 0x3d, 0xfa, 0xfd, 0x31, 0x2f, 0xf1,
    0xea, 0x22, 0xe0, 0xe9, 0x03, 0xed, 0x04, 0xf7, 0xdd, 0x54, 0x36, 0x7f,
    0xea, 0x19, 0xf5, 0x18, 0xe4, 0xf9, 0xd1, 0x10, 0xf1, 0x02, 0xbc, 0x12,
    0x1c, 0xf3, 0xff, 0x11, 0x0c, 0xda, 0x0a, 0xeb, 0xec, 0x09, 0xd7, 0x04,
    0xdf, 0xcb, 0x13, 0x09, 0x07, 0x01, 0xf9, 0xf9, 0x0a, 0x16, 0xdd, 0x3f,
    0xd4, 0xe4, 0xf4, 0x07, 0xfa, 0xf3, 0xc4, 0x2b, 0x63, 0xff, 0x39, 0x1b,
    0x13, 0xc1, 0xe5, 0x43, 0xed, 0x0d, 0xf4, 0xf2, 0xdf, 0x02, 0x43, 0xc3,
    0x03, 0xab, 0xde, 0x1a, 0x2c, 0x04, 0x31, 0x20, 0xff, 0x09, 0xeb, 0x23,
    0x19, 0x00, 0xc9, 0x25, 0x32, 0xf2, 0x13, 0x2c, 0x27, 0x01, 0x5e, 0xd3,
    0xef, 0x56, 0x04, 0xea, 0xf7, 0xf6, 0x28, 0xf7, 0xfa, 0x03, 0x03, 0x2e,
    0xfc, 0x14, 0xf5, 0x33, 0xc2, 0xf0, 0xfb, 0xf9, 0x01, 0xf1, 0xf3, 0x0b,
    0x2a, 0xfe, 0x0c, 0x2d, 0x09, 0xc4, 0xf4, 0x15, 0x17, 0x0a, 0xed, 0x10,
    0xf0, 0x02, 0x39, 0xbd, 0xec, 0xcd, 0xdf, 0x05, 0x0c, 0xf3, 0xe4, 0x07,
    0xdc, 0xdd, 0x8b, 0x03, 0xdf, 0xa2, 0xf0, 0xea, 0x37, 0xe5, 0x00, 0x0a,
    0xcf, 0xdc, 0x11, 0x09, 0x9c, 0x17, 0xfc, 0xf0, 0xf1, 0xe2, 0xef, 0x05,
    0xc9, 0x9a, 0xd1, 0x05, 0xd4, 0x0b, 0x13, 0x21, 0xea, 0xe2, 0x22, 0xf6,
    0x06, 0x13, 0xc9, 0x21, 0xf4, 0x22, 0x35, 0x00, 0x03, 0x1b, 0x23, 0xd6,
    0x19, 0xfc, 0x01, 0xda, 0xfe, 0x04, 0xfe, 0xd5, 0xdf, 0x41, 0x26, 0x64,
    0xe3, 0x17, 0x06, 0x11, 0xc6, 0xd9, 0xc1, 0x11, 0xdb, 0xd7, 0xb0, 0xf6,
    0x24, 0x05, 0xf2, 0x02, 0x00, 0xd7, 0x0b, 0xf5, 0xc9, 0x05, 0xc8, 0x15,
    0xcb, 0xec, 0xef, 0x05, 0x05, 0xd7, 0xee, 0x09, 0x33, 0xbd, 0xd5, 0x09,
    0xfd, 0xee, 0x52, 0xc4, 0x0b, 0x09, 0x00, 0x19, 0xd3, 0xad, 0x02, 0xdd,
    0xdc, 0xfe, 0x0e, 0xd8, 0x0a, 0xfd, 0x1e, 0x06, 0xf6, 0x2f, 0xd9, 0x0b,
    0x11, 0x2c, 0x05, 0xe5, 0x12, 0xcb, 0xe4, 0x0b, 0xd2, 0xdd, 0xff, 0xe3,
    0xd4, 0xf4, 0x4b, 0x16, 0xf5, 0xd8, 0x23, 0x0b, 0x56, 0x0c, 0xfc, 0xf9,
    0x36, 0x0a, 0x1d, 0x03, 0xee, 0xee, 0xff, 0xf4, 0xfe, 0x14, 0xed, 0x0b,
    0x17, 0xc6, 0xe6, 0x08, 0xef, 0xe7, 0x20, 0xe5, 0x05, 0x02, 0x24, 0x13,
    0xc2, 0xd1, 0x19, 0x1d, 0x05, 0x04, 0x10, 0xef, 0x2d, 0x00, 0x22, 0x04,
    0x03, 0x0c, 0x14, 0x21, 0x19, 0x1e, 0xf8, 0xe7, 0x16, 0xe9, 0x0c, 0xa2,
    0x10, 0x05, 0x20, 0xc9, 0xf1, 0x0e, 0xfd, 0xe6, 0x12, 0x0e, 0xe6, 0xfd,
    0xe6, 0x19, 0xc0, 0xba, 0x0b, 0xb1, 0x23, 0x0a, 0xdb, 0x1e, 0xbe, 0xe8,
    0x1b, 0x2e, 0x20, 0xee, 0xf6, 0x17, 0x25, 0xca, 0x29, 0x2a, 0x16, 0x09,
    0xc0, 0x0d, 0x16, 0xfe, 0x00, 0xf3, 0xfc, 0x08, 0x26, 0xed, 0x8e, 0x18,
    0x16, 0xd6, 0x2b, 0x02, 0xe3, 0x41, 0xb9, 0xdf, 0xe3, 0x12, 0xfe, 0xf6,
    0xe4, 0x07, 0x3c, 0xe3, 0x0a, 0xf6, 0x24, 0xd9, 0xf2, 0x31, 0x17, 0x11,
    0xe0, 0x2f, 0xb1, 0xf9, 0x26, 0xd4, 0xd5, 0x0b, 0x2e, 0xc3, 0x1a, 0x30,
    0xb7, 0x2f, 0xc0, 0xeb, 0x10, 0x24, 0x02, 0xd6, 0xff, 0x03, 0xef, 0xc4,
    0xed, 0xdf, 0x1d, 0xc1, 0xf3, 0x15, 0x1a, 0xf4, 0x1a, 0xe8, 0xf8, 0xde,
    0xcf, 0x0e, 0xf4, 0xe7, 0x40, 0x00, 0x16, 0x30, 0xe5, 0x10, 0xcf, 0xff,
    0x03, 0xf8, 0xd1, 0xfb, 0xf4, 0xd7, 0xe9, 0x0f, 0x02, 0xdb, 0xdd, 0xdb,
    0xe0, 0xef, 0x3a, 0xe5, 0xed, 0xc9, 0x24, 0xde, 0x22, 0x0d, 0xff, 0xf6,
    0x42, 0xe2, 0x0a, 0x30, 0xe5, 0x0a, 0xe6, 0xf1, 0x00, 0xd5, 0xe2, 0x1c,
    0xfb, 0xf8, 0xca, 0x08, 0xfa, 0xdc, 0xec, 0xeb, 0xeb, 0x42, 0x37, 0x03,
    0xd3, 0xd7, 0xe6, 0xe8, 0xe4, 0xdb, 0x1a, 0xf5, 0x66, 0xf8, 0x1c, 0x7f,
    0xfe, 0x0d, 0xde, 0xdd, 0x24, 0x08, 0x07, 0xfe, 0x17, 0xd4, 0x0d, 0x02,
    0xd4, 0xde, 0x13, 0xe0, 0xef, 0xfb, 0xfa, 0x0d, 0xf5, 0x0a, 0x06, 0x08,
    0x13, 0x0e, 0x04, 0xce, 0xf7, 0xec, 0xeb, 0x04, 0xe9, 0xd8, 0x0c, 0x0f,
    0x1f, 0x10, 0xef, 0xed, 0xf4, 0xed, 0xed, 0xfc, 0x05, 0xeb, 0x18, 0xef,
    0x26, 0xe9, 0x08, 0x06, 0xef, 0x2c, 0x33, 0xf3, 0x01, 0xfd, 0x24, 0xec,
    0xf2, 0xfa, 0x1c, 0xf4, 0xf4, 0xbb, 0xf8, 0xe2, 0xe5, 0x59, 0x2f, 0x1b,
    0x08, 0xec, 0x0c, 0x06, 0xec, 0xc7, 0xe5, 0xeb, 0xf9, 0xed, 0xe8, 0xfc,
    0xfe, 0xe0, 0xfb, 0x1e, 0x16, 0x1d, 0x0e, 0xdb, 0x01, 0xf1, 0xf4, 0x16,
    0xda, 0xdb, 0x10, 0x39, 0x4c, 0x08, 0xff, 0xdf, 0x47, 0xfe, 0xfc, 0xd5,
    0xc6, 0x12, 0x11, 0xe3, 0xd2, 0xe7, 0xed, 0x14, 0xe4, 0x15, 0x07, 0xf0,
    0xec, 0xce, 0xd3, 0x19, 0x13, 0xe8, 0xf4, 0xfd, 0x0b, 0xfc, 0xe6, 0xad,
    0x34, 0x2d, 0xf2, 0xdd, 0xd4, 0x16, 0x30, 0xf3, 0x25, 0x4a, 0x07, 0x22,
    0x3f, 0x01, 0x1b, 0x25, 0xda, 0x12, 0xec, 0x1a, 0x1b, 0xb8, 0x02, 0xee,
    0xef, 0x13, 0xf4, 0xf5, 0xed, 0xdf, 0x0a, 0xdb, 0x0d, 0x53, 0x2b, 0x04,
    0x37, 0xfb, 0x02, 0xdc, 0xdd, 0x00, 0x01, 0xda, 0xf8, 0x0a, 0xef, 0x1a,
    0xeb, 0x01, 0xea, 0xfe, 0xe9, 0xdb, 0xe5, 0x13, 0x11, 0xc7, 0x04, 0x1c,
    0x08, 0x13, 0xee, 0xb6, 0x30, 0x3d, 0x05, 0xf0, 0x25, 0xe9, 0x09, 0x0e,
    0xdb, 0xd6, 0x14, 0xcc, 0xe8, 0xd1, 0xff, 0x0a, 0xef, 0x1b, 0xec, 0xf4,
    0x1a, 0x06, 0x1f, 0xdd, 0xf6, 0xfa, 0xfb, 0x17, 0xfa, 0xc5, 0xd5, 0x0c,
    0x5f, 0x10, 0xf8, 0xfb, 0xe6, 0xeb, 0xfa, 0x0b, 0x06, 0x0a, 0x19, 0xf4,
    0x03, 0xf6, 0xe9, 0x10, 0xee, 0x2d, 0x33, 0xf1, 0xfa, 0xf6, 0x1d, 0xf1,
    0x0b, 0xee, 0x33, 0x01, 0xf2, 0xd2, 0xf4, 0xe9, 0xf2, 0x54, 0x33, 0x26,
    0xfc, 0xd1, 0xe0, 0x1b, 0xe7, 0xf5, 0x14, 0xe5, 0x24, 0xe4, 0x00, 0xf8,
    0xfe, 0xea, 0xe2, 0x02, 0xf4, 0xe7, 0x17, 0xce, 0x34, 0xe7, 0xf7, 0x7c,
    0xf2, 0xea, 0xf5, 0xf9, 0x7f, 0x37, 0x05, 0xca, 0x02, 0x3f, 0x50, 0xb4,
    0xd8, 0xde, 0xf6, 0xf3, 0xcb, 0x16, 0xf1, 0xef, 0x24, 0xf9, 0xe3, 0x13,
    0x18, 0x04, 0xcd, 0xb1, 0x12, 0xf2, 0xd8, 0xfb, 0xf7, 0x8f, 0x10, 0x07,
    0x24, 0xdd, 0x0a, 0xfb, 0x2e, 0x5c, 0x26, 0xd1, 0xab, 0x0b, 0xc6, 0x00,
    0xf4, 0xf4, 0xf4, 0x02, 0x0f, 0x7f, 0xee, 0x1a, 0x0a, 0xc9, 0x09, 0xd1,
    0xce, 0xea, 0xdb, 0x0c, 0x0f, 0x07, 0x1b, 0x07, 0x09, 0xce, 0x42, 0xfd,
    0x06, 0x4b, 0x3b, 0xd0, 0xed, 0xc7, 0x15, 0xfe, 0xf0, 0x11, 0xd6, 0x08,
    0x23, 0x06, 0xeb, 0x1a, 0x0c, 0xf7, 0xd5, 0xd3, 0x10, 0x00, 0xd5, 0x0c,
    0x05, 0xad, 0x16, 0x23, 0x1c, 0xf6, 0x05, 0xff, 0xf1, 0xfc, 0x16, 0x35,
    0xe3, 0xe7, 0x15, 0x1c, 0xe2, 0xfa, 0x3b, 0xd4, 0x56, 0x05, 0xfc, 0x15,
    0x0c, 0xfc, 0xfe, 0xc9, 0x10, 0x39, 0x02, 0x02, 0xef, 0x07, 0x07, 0xe8,
    0x1f, 0xfd, 0x15, 0xae, 0xe5, 0xec, 0x05, 0x4c, 0xcf, 0xce, 0x32, 0x11,
    0xcc, 0x34, 0xd8, 0x05, 0x23, 0x18, 0xe4, 0x21, 0xf5, 0xdc, 0x15, 0xac,
    0x29, 0xfb, 0x1b, 0xf5, 0xaa, 0x1d, 0xe8, 0x0e, 0x0d, 0x17, 0x44, 0xfb,
    0x13, 0x20, 0xed, 0x3d, 0xea, 0x03, 0xf9, 0x04, 0xea, 0x05, 0x1f, 0xbb,
    0x2e, 0x11, 0xa5, 0xe8, 0xed, 0xe8, 0x00, 0xe4, 0x0a, 0x36, 0xfe, 0x04,
    0x48, 0x02, 0x28, 0xb5, 0x16, 0x1a, 0x33, 0x9c, 0xf2, 0x48, 0x5b, 0xda,
    0xeb, 0xfe, 0x0d, 0xf6, 0xc8, 0x1e, 0x0d, 0x11, 0x0b, 0x0c, 0xec, 0xfd,
    0x02, 0x10, 0xcb, 0xdf, 0x29, 0xe7, 0xe8, 0x0c, 0xe3, 0xe1, 0xf5, 0xef,
    0x0e, 0x02, 0x08, 0xf8, 0xea, 0x7f, 0x5e, 0xec, 0xcc, 0x14, 0xec, 0xf5,
    0xee, 0x16, 0x1e, 0xe9, 0x23, 0x46, 0xb5, 0x1a, 0xf0, 0xec, 0x15, 0xe7,
    0xf8, 0xe1, 0xe5, 0x1d, 0xd8, 0x10, 0xfd, 0xef, 0x1f, 0xe4, 0x40, 0x06,
    0xe3, 0xfd, 0x2f, 0xd3, 0xeb, 0xdf, 0x10, 0xd8, 0x12, 0x05, 0xee, 0xfa,
    0x39, 0xf3, 0xe2, 0xee, 0xfc, 0xfe, 0xb9, 0xe4, 0x57, 0x05, 0xf5, 0x6d,
    0xf7, 0xc2, 0xe2, 0xcf, 0x42, 0xde, 0xe7, 0x00, 0xf6, 0xda, 0xf4, 0x0b,
    0xed, 0xdc, 0xca, 0x0b, 0x02, 0x0a, 0x05, 0xd1, 0xe8, 0xf1, 0x0e, 0x13,
    0x4d, 0xe6, 0x04, 0xdc, 0xdf, 0xdc, 0xd0, 0x00, 0x1a, 0xd1, 0x39, 0x2a,
    0x9d, 0xcd, 0x1a, 0xe4, 0x57, 0xf4, 0xd5, 0x30, 0xe0, 0x0d, 0x25, 0xe8,
    0x0f, 0x1c, 0x26, 0xfb, 0xfd, 0xcf, 0x32, 0x6b, 0x33, 0xdc, 0xc9, 0xe2,
    0xf3, 0x1c, 0xd7, 0xfe, 0x5f, 0xf3, 0x7f, 0x2c, 0xe5, 0xe7, 0xe6, 0xea,
    0x05, 0x09, 0xf5, 0x29, 0xc5, 0xda, 0xcd, 0xff, 0xed, 0xbb, 0x20, 0xf2,
    0xee, 0xe7, 0xf7, 0x38, 0x4d, 0xf7, 0xe9, 0xe8, 0x05, 0xf3, 0xc7, 0x07,
    0x47, 0xae, 0x16, 0xea, 0xda, 0xde, 0x0c, 0xf0, 0xb1, 0x05, 0xed, 0x0c,
    0x0a, 0xdb, 0x0f, 0xd7, 0xfd, 0xf6, 0x01, 0xf5, 0xf7, 0xf1, 0xd7, 0x10,
    0x3b, 0x0f, 0x19, 0xf2, 0xea, 0x67, 0xb8, 0xea, 0x21, 0xb7, 0xe9, 0x32,
    0xd3, 0xfd, 0x00, 0xe7, 0xf0, 0x1d, 0xf4, 0x46, 0xf1, 0xde, 0xee, 0xc7,
    0xe4, 0xff, 0xee, 0xf5, 0x20, 0xca, 0xf3, 0x08, 0x1d, 0x03, 0xa0, 0xde,
    0xe9, 0x22, 0xf7, 0xfa, 0xbb, 0xce, 0xe9, 0x11, 0xd4, 0xd6, 0xb0, 0xd5,
    0xe0, 0xcb, 0xf0, 0x32, 0x1a, 0xe9, 0x15, 0xe3, 0xe6, 0x3a, 0x2a, 0xe2,
    0xd9, 0xfe, 0xcf, 0x16, 0x31, 0x11, 0x0e, 0xcd, 0xf9, 0x3b, 0xc7, 0xe4,
    0x37, 0xf5, 0x11, 0x3d, 0xbe, 0x1b, 0x16, 0xd1, 0x0a, 0x05, 0x35, 0x39,
    0xfc, 0x2c, 0x1d, 0x0f, 0xf5, 0xf4, 0x0e, 0x11, 0xd8, 0x0f, 0x14, 0x26,
    0x41, 0xf5, 0xfb, 0xf1, 0x17, 0xe2, 0xf6, 0xe1, 0x13, 0xe9, 0x53, 0x0e,
    0xe4, 0x13, 0x0c, 0xe7, 0x24, 0xe5, 0x09, 0x6d, 0xe3, 0x46, 0x40, 0xed,
    0x21, 0x3f, 0x23, 0xf2, 0x0f, 0x06, 0x45, 0x5f, 0x28, 0xd9, 0xd6, 0xf1,
    0x19, 0x22, 0xe0, 0xf8, 0x72, 0x3a, 0x62, 0xfd, 0x0f, 0xff, 0xdf, 0xd9,
    0x17, 0x04, 0x16, 0x25, 0xdb, 0x12, 0x14, 0x0f, 0xfa, 0x06, 0x49, 0x19,
    0xd8, 0xff, 0x1e, 0x38, 0x3f, 0x05, 0xf9, 0xdf, 0x51, 0xf7, 0xdb, 0x27,
    0x33, 0xdb, 0x37, 0x0f, 0xf9, 0x04, 0x00, 0xe1, 0xed, 0xf8, 0x16, 0xd1,
    0x10, 0x1f, 0x15, 0xe9, 0x03, 0x14, 0xbd, 0xfb, 0xf6, 0x05, 0x11, 0xb3,
    0xd6, 0xfe, 0x0f, 0x05, 0xf3, 0xeb, 0x23, 0xff, 0xa1, 0x17, 0xad, 0x30,
    0x0f, 0xf2, 0xe2, 0x28, 0xee, 0xf9, 0x1e, 0xd5, 0x25, 0xf6, 0xe2, 0x27,
    0xaf, 0xd4, 0xe0, 0xee, 0x0a, 0xda, 0xe6, 0xaa, 0xfa, 0x51, 0xd6, 0x21,
    0xf5, 0x0c, 0xfb, 0x02, 0x8d, 0xe5, 0x93, 0x42, 0xed, 0xf7, 0x07, 0xe8,
    0x1d, 0x09, 0x06, 0xe1, 0x04, 0x11, 0x0d, 0x09, 0x2f, 0xf5, 0xe5, 0x07,
    0x02, 0x08, 0xe6, 0xa2, 0xcc, 0x03, 0x1c, 0xfc, 0xf0, 0xf2, 0x1f, 0xfc,
    0xb0, 0x0b, 0x98, 0xeb, 0x19, 0x0a, 0x0d, 0x28, 0x3e, 0xe8, 0x1c, 0xf1,
    0x1a, 0x0e, 0xf0, 0xfd, 0x43, 0xc9, 0xc9, 0x03, 0xdb, 0x0d, 0x2e, 0x0a,
    0xea, 0x01, 0x21, 0x1e, 0xd8, 0xcd, 0x0e, 0x02, 0x9c, 0xe6, 0xe5, 0xea,
    0x2c, 0xf5, 0xf1, 0x13, 0x23, 0xe1, 0x14, 0xd4, 0x0c, 0x0e, 0x05, 0x0e,
    0x26, 0xe5, 0xdf, 0xf0, 0xcf, 0x3f, 0x0f, 0x01, 0xfd, 0x22, 0xf8, 0x28,
    0xfb, 0xdd, 0xf2, 0xf3, 0x29, 0xeb, 0x15, 0x00, 0x16, 0x04, 0x2f, 0xe4,
    0x58, 0x16, 0x17, 0x0a, 0x14, 0x1b, 0xfe, 0xfb, 0x2c, 0xea, 0xd1, 0x25,
    0xe7, 0xfc, 0x5c, 0xed, 0xd9, 0x0e, 0x1a, 0x11, 0xe5, 0xd8, 0x11, 0x11,
    0xb7, 0xfc, 0xe1, 0xef, 0x2c, 0x09, 0x04, 0x0b, 0x16, 0x04, 0xed, 0xb2,
    0x34, 0x10, 0x2a, 0x01, 0x17, 0x05, 0xb6, 0x02, 0x11, 0x17, 0x20, 0xdc,
    0xf8, 0x1c, 0x01, 0x15, 0xa6, 0xed, 0x43, 0xc8, 0xe3, 0xf3, 0xd8, 0x07,
    0x1a, 0x22, 0x03, 0x31, 0x08, 0xef, 0x0d, 0xa3, 0x54, 0xf4, 0xc5, 0x06,
    0xe3, 0x94, 0xcf, 0xfb, 0x0a, 0x81, 0xf6, 0xd0, 0xff, 0x38, 0xbf, 0x29,
    0xbc, 0xed, 0x2e, 0xeb, 0xc4, 0xc2, 0xbd, 0x2a, 0x02, 0xf5, 0xeb, 0xfb,
    0x23, 0x19, 0xe0, 0xbc, 0x25, 0x1e, 0x1e, 0xfa, 0x21, 0xdf, 0xed, 0x15,
    0x05, 0xce, 0x11, 0xe6, 0xf5, 0x0a, 0xf8, 0x14, 0xd4, 0xf7, 0x2a, 0xd6,
    0xfc, 0xfc, 0xf3, 0x0c, 0x11, 0x27, 0xfe, 0x10, 0x2e, 0x03, 0x35, 0xe1,
    0xce, 0xf8, 0x27, 0xdc, 0xc3, 0x22, 0xeb, 0x35, 0xec, 0xee, 0x0e, 0x13,
    0x1c, 0x33, 0xd8, 0xdc, 0x1c, 0x2c, 0x04, 0xf8, 0xe2, 0xc7, 0xf8, 0x1a,
    0xfb, 0x00, 0xd5, 0xdb, 0x2c, 0x0a, 0x64, 0xdd, 0x53, 0x3c, 0xd5, 0xe2,
    0x16, 0xe2, 0xec, 0x1b, 0xfc, 0x16, 0x4c, 0xfe, 0x0e, 0xdb, 0xea, 0x20,
    0xd5, 0x1f, 0x43, 0xee, 0xf4, 0xc2, 0x0b, 0xe6, 0x02, 0xe8, 0xe9, 0xd3,
    0x2c, 0x18, 0x2e, 0xe8, 0xd4, 0xf1, 0x17, 0xfb, 0xc9, 0x15, 0xef, 0x25,
    0xe2, 0xf5, 0x28, 0x0d, 0x1d, 0x23, 0xe1, 0x01, 0x14, 0x05, 0xfc, 0xe3,
    0xd0, 0xec, 0x10, 0xfa, 0x0a, 0x04, 0xf6, 0x11, 0x07, 0xf5, 0xe6, 0xdc,
    0x04, 0x0f, 0xed, 0x0a, 0xc9, 0xee, 0x16, 0xed, 0xea, 0x17, 0xb7, 0xf2,
    0xc2, 0x2d, 0xe9, 0xdf, 0x01, 0x3b, 0xea, 0xf7, 0x16, 0x04, 0xc8, 0xd0,
    0x0b, 0x40, 0x19, 0xf6, 0xc0, 0xb2, 0x09, 0xde, 0xe6, 0x28, 0x29, 0xde,
    0xfd, 0xf9, 0xfd, 0x04, 0x1f, 0x1a, 0x15, 0x9e, 0xd2, 0xe2, 0xe9, 0x05,
    0x06, 0x00, 0x03, 0xf9, 0x97, 0xeb, 0x9c, 0x0a, 0xf5, 0x3d, 0xf9, 0xd7,
    0x1a, 0xf3, 0xdf, 0xee, 0xfe, 0x22, 0xff, 0xe3, 0xcf, 0xed, 0x28, 0xe8,
    0xd9, 0xfb, 0xf3, 0x00, 0xe5, 0x19, 0xff, 0xf7, 0xfd, 0x39, 0xd1, 0xef,
    0x2d, 0xf3, 0xd8, 0x8b, 0x06, 0x54, 0x21, 0x00, 0x40, 0xfa, 0x5e, 0xb7,
    0xe7, 0x01, 0x41, 0xe5, 0xe4, 0x28, 0xfb, 0x19, 0xe9, 0xfc, 0x15, 0x12,
    0x09, 0x56, 0xe0, 0xe4, 0x19, 0x09, 0x15, 0xed, 0xf3, 0xe4, 0xed, 0x29,
    0x18, 0x09, 0xe7, 0x0c, 0x01, 0x2f, 0x7f, 0xd8, 0x3e, 0x43, 0xe9, 0xfb,
    0x2e, 0xeb, 0x02, 0xba, 0xc9, 0x20, 0x00, 0xdc, 0xfc, 0xeb, 0xe2, 0x2a,
    0xbd, 0xce, 0x42, 0xed, 0xd9, 0xec, 0xed, 0x0b, 0xe8, 0xdf, 0x06, 0xb5,
    0x20, 0xf7, 0x39, 0xcf, 0xea, 0xd8, 0x31, 0xee, 0xf2, 0x31, 0x02, 0x21,
    0xef, 0xee, 0x1d, 0x0f, 0x22, 0x2a, 0xdd, 0xdf, 0x1c, 0xf0, 0xf7, 0x00,
    0x04, 0xdd, 0xfb, 0x0b, 0x2c, 0x25, 0x04, 0x00, 0x02, 0x65, 0x04, 0xe6,
    0xf2, 0xfd, 0xf3, 0xfe, 0x06, 0x02, 0xe3, 0x0c, 0x3c, 0xd3, 0x00, 0x18,
    0x03, 0xfe, 0xe8, 0xe6, 0xdb, 0x22, 0xf7, 0xed, 0xf5, 0xfc, 0x13, 0x1e,
    0xf0, 0xfa, 0x1d, 0x22, 0x15, 0x5c, 0x0e, 0xdf, 0xc3, 0xb9, 0xd0, 0x15,
    0xf5, 0xcc, 0x01, 0x1b, 0x2f, 0x07, 0x11, 0x0a, 0xe2, 0x2a, 0x0d, 0xa8,
    0xdb, 0xda, 0xd6, 0xef, 0x0c, 0xed, 0x1e, 0x22, 0xd8, 0x13, 0x41, 0x50,
    0xfa, 0x2d, 0x0d, 0xed, 0xeb, 0xb5, 0xb4, 0xf5, 0xfd, 0xe2, 0xb4, 0x07,
    0x1c, 0xf7, 0xfa, 0x21, 0x03, 0xd9, 0x06, 0xed, 0xdd, 0x0b, 0xc8, 0x05,
    0xe5, 0xc6, 0x1f, 0x12, 0xec, 0xdc, 0x0d, 0xfe, 0x13, 0x2e, 0xea, 0x42,
    0xd3, 0xd7, 0x01, 0x0a, 0x04, 0x06, 0xe9, 0xf2, 0x67, 0xeb, 0x4f, 0x30,
    0x0a, 0xdc, 0xed, 0x0e, 0xf7, 0x20, 0x03, 0xf9, 0xd8, 0x23, 0x52, 0xc8,
    0xf3, 0xab, 0xe1, 0x0f, 0x0b, 0x03, 0x20, 0x52, 0xe6, 0xf3, 0x03, 0x34,
    0x01, 0x1f, 0xe2, 0xe3, 0x40, 0xf6, 0x23, 0x3b, 0x2a, 0xdc, 0x47, 0xc2,
    0x09, 0x35, 0x17, 0xd6, 0xd0, 0x17, 0x3c, 0xdd, 0xf1, 0x10, 0x12, 0x14,
    0xf8, 0x22, 0xfc, 0x37, 0xd5, 0xea, 0x24, 0xf0, 0x1a, 0x17, 0xe9, 0xf4,
    0x3e, 0xfd, 0xf9, 0x24, 0x0d, 0xc2, 0xee, 0x0a, 0x16, 0xfd, 0x25, 0x0e,
    0xe6, 0x12, 0x31, 0xc9, 0xfd, 0xcf, 0xe2, 0xf4, 0x02, 0x44, 0x17, 0x03,
    0xe7, 0xe2, 0x81, 0x06, 0xe8, 0x9d, 0xe6, 0xf3, 0x33, 0xf7, 0xff, 0x04,
    0xf5, 0xf8, 0x15, 0x08, 0xac, 0x14, 0xee, 0xf8, 0x05, 0xe1, 0x0c, 0x1d,
    0xee, 0xab, 0xd1, 0x0a, 0xef, 0x31, 0x0f, 0x07, 0xcf, 0xde, 0x0b, 0x07,
    0xf3, 0x27, 0xa5, 0x34, 0xfb, 0x1c, 0x02, 0xf5, 0xf7, 0x42, 0x17, 0xde,
    0x00, 0xd7, 0x15, 0xff, 0xd6, 0xf8, 0xf0, 0x3b, 0xf8, 0x47, 0x2b, 0x40,
    0xca, 0x2f, 0x06, 0x03, 0xf0, 0xe3, 0xd9, 0x0b, 0x09, 0xda, 0xa6, 0xfc,
    0x31, 0x06, 0xe7, 0x0e, 0x00, 0xd0, 0x06, 0xfe, 0xd8, 0x0f, 0xea, 0x17,
    0xc9, 0xe4, 0xd9, 0x0c, 0x18, 0xeb, 0x04, 0x0b, 0x0c, 0xf7, 0x17, 0x12,
    0xd8, 0x37, 0x2b, 0x14, 0xf0, 0x0d, 0x08, 0x2e, 0xd0, 0x25, 0x03, 0x0e,
    0x36, 0x27, 0x06, 0x0d, 0x21, 0x0a, 0xd3, 0xe9, 0x12, 0xb9, 0x05, 0x25,
    0x02, 0x30, 0x10, 0xb9, 0x50, 0xe9, 0xff, 0x38, 0xfc, 0x65, 0x10, 0xed,
    0xfb, 0xe9, 0xde, 0x10, 0x07, 0xfe, 0x4b, 0x11, 0x1f, 0xdf, 0x31, 0xed,
    0xd4, 0x1e, 0xdf, 0xeb, 0x1d, 0xa1, 0x1d, 0x27, 0x00, 0xff, 0xdf, 0xfd,
    0x00, 0xd1, 0x00, 0xfc, 0xec, 0x27, 0x10, 0xee, 0xf0, 0xf5, 0x03, 0x29,
    0xe9, 0x10, 0x0a, 0x02, 0x38, 0x10, 0x08, 0xd2, 0x23, 0xeb, 0xbc, 0xfc,
    0x06, 0xa3, 0xf2, 0x0a, 0x11, 0x44, 0x0e, 0xe4, 0xec, 0xda, 0xe1, 0xed,
    0xe0, 0x02, 0xe0, 0xe1, 0xf1, 0xe4, 0xc6, 0x3d, 0xe6, 0xec, 0x07, 0xb8,
    0xd0, 0x30, 0x2a, 0x14, 0xef, 0x01, 0x9e, 0xef, 0xd7, 0xc2, 0x93, 0x59,
    0xee, 0x68, 0x3b, 0x2a, 0xbe, 0xef, 0xfc, 0xfc, 0x11, 0x53, 0xf0, 0xca,
    0xf2, 0xa5, 0xc8, 0x69, 0x01, 0xc3, 0x3f, 0xaf, 0xb5, 0x13, 0xf4, 0xc2,
    0xf2, 0x5a, 0x07, 0xe9, 0xca, 0xd3, 0xa4, 0xe8, 0xe4, 0x2e, 0xde, 0x1d,
    0x22, 0xc3, 0xeb, 0xd9, 0xd6, 0x04, 0xa8, 0xc2, 0xec, 0xb5, 0xd4, 0x3e,
    0xe3, 0xef, 0xed, 0xcc, 0xde, 0x2e, 0x10, 0x09, 0x0e, 0x0c, 0x94, 0x01,
    0xd5, 0x92, 0xaf, 0x2e, 0xf6, 0x4c, 0x52, 0x03, 0x1d, 0xaf, 0xe5, 0xe7,
    0xcc, 0x1c, 0x1f, 0x3d, 0xf6, 0x11, 0xfb, 0x21, 0xff, 0x2d, 0x10, 0xf0,
    0xf5, 0xec, 0x0f, 0x09, 0x2c, 0xfd, 0xaf, 0x00, 0xec, 0xa4, 0xea, 0x37,
    0x0d, 0x1c, 0x0e, 0xcc, 0x02, 0x81, 0xf0, 0x00, 0xfe, 0x5c, 0x17, 0x0c,
    0x24, 0xf0, 0xf0, 0xaa, 0xdd, 0x45, 0x54, 0xf4, 0xc7, 0x9a, 0x0e, 0xee,
    0xe0, 0x11, 0xbe, 0x1c, 0xdc, 0xcb, 0x19, 0xd4, 0xfd, 0xf5, 0xfa, 0xf8,
    0x16, 0x83, 0xb9, 0xd2, 0xb7, 0x21, 0x13, 0x3d, 0xf0, 0x12, 0xfa, 0x22,
    0xfa, 0x2b, 0xf7, 0xde, 0xde, 0xc1, 0xf8, 0x03, 0x46, 0xfd, 0x8f, 0x25,
    0xed, 0x94, 0xec, 0xe3, 0x2a, 0x5c, 0x1f, 0xe2, 0x2b, 0xdd, 0x18, 0xfd,
    0x18, 0xee, 0x02, 0xd7, 0xfe, 0xd3, 0x26, 0xf5, 0xef, 0x58, 0xf5, 0x17,
    0x04, 0x23, 0xf2, 0xe0, 0x0d, 0xf1, 0x01, 0xf8, 0x3b, 0x08, 0x00, 0x28,
    0x0a, 0xfe, 0xfa, 0xe1, 0xe1, 0xf0, 0xd7, 0xe9, 0x31, 0x0d, 0x17, 0x11,
    0x3d, 0x1b, 0xeb, 0xe8, 0xe2, 0x4e, 0x9e, 0x13, 0xce, 0xe1, 0x19, 0x0a,
    0xc1, 0x0b, 0x20, 0xdd, 0x20, 0xca, 0x20, 0x18, 0xe4, 0x1e, 0x4c, 0x0b,
    0xfb, 0xd1, 0x04, 0x07, 0x15, 0xe5, 0xe7, 0xc9, 0x22, 0xdc, 0x39, 0xfb,
    0x0f, 0x0f, 0xf9, 0x10, 0x13, 0x1c, 0xe3, 0xe8, 0xed, 0xec, 0x0d, 0xf5,
    0x28, 0xf0, 0x1c, 0x11, 0x17, 0xe8, 0xcb, 0xcf, 0x2e, 0xe7, 0x18, 0xea,
    0xfb, 0x10, 0xf4, 0x09, 0x03, 0xfb, 0x08, 0xd9, 0xdd, 0x2e, 0xdb, 0xe9,
    0xd2, 0x24, 0x14, 0xd9, 0xfb, 0xe3, 0xe8, 0xf1, 0x7f, 0xe8, 0x20, 0xf6,
    0x11, 0xfd, 0xfc, 0xe9, 0xc0, 0x14, 0xd8, 0xd1, 0x10, 0xd9, 0xfd, 0xf8,
    0x1f, 0xf5, 0x4d, 0xe0, 0xf2, 0x1a, 0xe6, 0xe7, 0xe7, 0xef, 0x53, 0x0b,
    0xc0, 0x16, 0xf3, 0xde, 0xf3, 0xc3, 0x0c, 0xe9, 0x13, 0x0b, 0x54, 0x1a,
    0x31, 0xcd, 0x05, 0xf0, 0x12, 0x05, 0xf2, 0xdb, 0x12, 0xef, 0xed, 0xe2,
    0xfe, 0x04, 0xf8, 0xfe, 0xca, 0x22, 0xd9, 0xdf, 0xfc, 0xca, 0xe1, 0x0e,
    0x7c, 0xeb, 0x2d, 0x03, 0x15, 0x02, 0xb7, 0xbc, 0x27, 0xef, 0x06, 0x18,
    0x09, 0x0d, 0x02, 0x0d, 0x11, 0xd7, 0x0e, 0x01, 0x1b, 0x53, 0xf8, 0x16,
    0xfd, 0x02, 0xf7, 0x06, 0x1a, 0x2c, 0x06, 0xd0, 0x3d, 0x0f, 0xf9, 0xdd,
    0x37, 0x00, 0x09, 0xf1, 0xdd, 0xd3, 0xae, 0x0f, 0x03, 0x08, 0x0b, 0x26,
    0x39, 0x2e, 0xc6, 0xd7, 0x0f, 0x73, 0xaf, 0x32, 0xde, 0xd3, 0x23, 0xeb,
    0xec, 0x03, 0x11, 0xe2, 0x20, 0xdb, 0x20, 0xff, 0xfe, 0xee, 0x33, 0xf9,
    0xfa, 0xc9, 0xc6, 0x13, 0x16, 0xf8, 0xd6, 0xf0, 0x27, 0xc8, 0x20, 0xf1,
    0xec, 0x1f, 0xfd, 0x11, 0x0d, 0xe5, 0x03, 0xbf, 0x09, 0xe2, 0x00, 0x0e,
    0x4d, 0x27, 0x0f, 0xd9, 0x31, 0xff, 0x03, 0xe7, 0xf8, 0x03, 0xac, 0x37,
    0xde, 0xdf, 0xc3, 0x2f, 0xe7, 0xf9, 0x05, 0xd0, 0xfb, 0x09, 0x15, 0x09,
    0x13, 0xfa, 0x49, 0x0b, 0xdc, 0xf1, 0xe8, 0xdd, 0x11, 0xe5, 0x25, 0x04,
    0xb0, 0xf1, 0x2b, 0x22, 0x24, 0xeb, 0xab, 0x4b, 0xd1, 0x21, 0x09, 0xfb,
    0x15, 0x05, 0xf2, 0xf3, 0x24, 0xa5, 0x1b, 0x18, 0xf1, 0x06, 0xfa, 0xfc,
    0x17, 0x18, 0xb5, 0xfc, 0x44, 0xd5, 0x2b, 0xd2, 0x1c, 0x08, 0xe7, 0x3b,
    0xcf, 0xeb, 0xb0, 0x4c, 0xec, 0x1d, 0xce, 0x2b, 0x00, 0x01, 0x10, 0xe4,
    0x13, 0xef, 0x17, 0x13, 0x09, 0xe9, 0x38, 0x1f, 0xe3, 0xf0, 0xd4, 0xec,
    0x0c, 0xeb, 0x25, 0x08, 0xc9, 0x02, 0x2d, 0x1f, 0x04, 0x15, 0xf3, 0x2f,
    0xf5, 0xeb, 0x2a, 0xf9, 0x2e, 0x2a, 0x18, 0x3f, 0xfa, 0x0d, 0x39, 0x2b,
    0x32, 0xe7, 0x13, 0x51, 0xda, 0x51, 0x08, 0xc3, 0xda, 0x0e, 0x01, 0x64,
    0xb9, 0xba, 0xd7, 0xfb, 0x3f, 0x37, 0x17, 0x50, 0x13, 0xf3, 0xbf, 0x31,
    0xb6, 0x05, 0xef, 0x0a, 0x03, 0xcf, 0xc1, 0x27, 0x56, 0xf6, 0xb4, 0xf7,
    0x16, 0xfd, 0x04, 0xda, 0x2f, 0xe9, 0x39, 0xf4, 0xa7, 0x95, 0x8c, 0xd6,
    0xdd, 0x2a, 0xf7, 0x1e, 0x0a, 0x12, 0x13, 0xe5, 0x31, 0x30, 0x0f, 0x4a,
    0xf0, 0xcd, 0x3a, 0x15, 0x2a, 0xcf, 0xee, 0x25, 0x07, 0x23, 0xf2, 0xed,
    0xf1, 0xd6, 0x2b, 0x34, 0xd4, 0xc7, 0xd1, 0xe9, 0x03, 0x09, 0xfc, 0x2d,
    0x02, 0x38, 0xb7, 0x3a, 0xe5, 0xb3, 0xf9, 0xb9, 0xb4, 0x07, 0x0b, 0x28,
    0x1a, 0x13, 0x27, 0x18, 0xc2, 0xcb, 0xf9, 0xe2, 0x12, 0xdf, 0x36, 0x00,
    0xb8, 0x0a, 0x1d, 0x25, 0x0e, 0xdb, 0xe9, 0x45, 0xe9, 0x1e, 0x38, 0xbf,
    0x23, 0x0b, 0xd7, 0xd7, 0xf6, 0x81, 0x09, 0xd5, 0xcf, 0x2d, 0xf8, 0x04,
    0x28, 0xdb, 0xde, 0xfb, 0x71, 0x28, 0xf9, 0x1e, 0x27, 0x19, 0xdd, 0x14,
    0xb5, 0x0d, 0xfc, 0x21, 0xf9, 0x35, 0xe7, 0x28, 0x08, 0xb1, 0xdc, 0xdd,
    0xe8, 0x0d, 0xfa, 0xf2, 0xff, 0xe7, 0x43, 0x21, 0xd0, 0xda, 0xd4, 0xe2,
    0xcc, 0xe5, 0x15, 0xfd, 0xde, 0x02, 0x14, 0x0f, 0xe1, 0x55, 0x00, 0xff,
    0x3e, 0x13, 0xfd, 0x0b, 0xf0, 0x1a, 0x00, 0x09, 0x07, 0xec, 0xec, 0xf4,
    0x02, 0xef, 0xf6, 0xfe, 0xeb, 0x10, 0x3d, 0xe3, 0x14, 0x4c, 0x01, 0xe5,
    0xbe, 0xee, 0x23, 0x23, 0x25, 0x3a, 0xf7, 0x06, 0xf2, 0xc9, 0xd9, 0xfe,
    0xf0, 0x33, 0x05, 0xde, 0x15, 0xb8, 0xa3, 0x07, 0xf0, 0x58, 0xa6, 0x0f,
    0xfe, 0xc3, 0xe9, 0x06, 0x10, 0x29, 0x0e, 0x2b, 0x3f, 0xc8, 0xb8, 0xa2,
    0xce, 0x40, 0xc6, 0x00, 0x48, 0x0f, 0xe6, 0x01, 0x07, 0xe5, 0xb9, 0xe2,
    0x39, 0xe3, 0xf4, 0xca, 0xc4, 0xd7, 0xf6, 0xef, 0xd5, 0x09, 0x19, 0x05,
    0x9c, 0x71, 0xf8, 0x9f, 0xc4, 0x00, 0x16, 0x2a, 0xef, 0x01, 0xff, 0x55,
    0x49, 0xe8, 0x19, 0x23, 0xfa, 0x33, 0x05, 0xdf, 0x01, 0xf5, 0x28, 0xeb,
    0xe3, 0xfb, 0x18, 0xe1, 0x0d, 0x15, 0x4b, 0xe4, 0xa2, 0x0e, 0x33, 0x0b,
    0xc2, 0xba, 0xee, 0xd2, 0x4b, 0x00, 0xff, 0x2d, 0x0c, 0xf4, 0xf6, 0x13,
    0xe9, 0x1e, 0xee, 0xa0, 0x25, 0xe6, 0xea, 0x29, 0x04, 0x3f, 0xd8, 0xfc,
    0x1a, 0xf6, 0x1c, 0xdb, 0x3c, 0x3d, 0x51, 0x53, 0xf8, 0xbb, 0xee, 0xd5,
    0x06, 0x3b, 0x18, 0x24, 0x2e, 0xef, 0x26, 0x12, 0x17, 0x16, 0x0a, 0x01,
    0x11, 0xe2, 0x5b, 0xf0, 0xd9, 0xba, 0x0d, 0xf2, 0x28, 0x3b, 0x46, 0x06,
    0x81, 0x00, 0x1b, 0x0c, 0xdd, 0xcc, 0xed, 0xda, 0xde, 0x38, 0x19, 0x02,
    0x4e, 0x07, 0x12, 0xd2, 0x0d, 0x2a, 0xd2, 0xaf, 0xfb, 0xdf, 0xf3, 0xda,
    0xdc, 0x1b, 0xda, 0xfa, 0xf3, 0xbb, 0x50, 0xf7, 0xd8, 0x4b, 0xdd, 0x13,
    0xc9, 0xe8, 0xce, 0xfd, 0x05, 0x3e, 0xfe, 0xce, 0x21, 0xe2, 0xfc, 0xf4,
    0xba, 0x0b, 0x02, 0xf4, 0x08, 0x97, 0xd3, 0xe6, 0x1c, 0x48, 0xb6, 0x1e,
    0x16, 0xb2, 0xfa, 0xf3, 0xa8, 0x4c, 0xc0, 0x4b, 0x1a, 0xf3, 0xc0, 0xf4,
    0xe8, 0x43, 0xef, 0xdd, 0x48, 0x10, 0x1f, 0xe8, 0x04, 0x15, 0xd6, 0xda,
    0x11, 0xdc, 0x03, 0xc0, 0xea, 0x15, 0xf7, 0xff, 0xe3, 0xef, 0x17, 0xe6,
    0xbb, 0x1a, 0xc9, 0xfa, 0xef, 0x06, 0x03, 0x56, 0x04, 0xde, 0x09, 0x2a,
    0x1d, 0xdb, 0xe1, 0xf5, 0x04, 0xcb, 0x06, 0xec, 0xec, 0x0e, 0xf4, 0x21,
    0x35, 0x0c, 0x01, 0xbf, 0xd3, 0xf0, 0xf2, 0x01, 0x25, 0x02, 0x2a, 0x4a,
    0xe2, 0xe6, 0x0e, 0xf0, 0x16, 0xd8, 0xda, 0x56, 0x19, 0xfa, 0x20, 0xef,
    0x2f, 0x14, 0xf0, 0xd7, 0x06, 0xd2, 0xeb, 0x2a, 0xed, 0x0e, 0x16, 0xc3,
    0xd5, 0xfb, 0xef, 0xeb, 0x47, 0x0a, 0x4c, 0x56, 0xcd, 0xfa, 0x39, 0x10,
    0x01, 0xe2, 0xd3, 0x3e, 0x0d, 0xc6, 0xbd, 0xfc, 0x05, 0xc4, 0x15, 0xc9,
    0xfa, 0x0c, 0xfc, 0x39, 0x23, 0x15, 0xe9, 0xd3, 0xde, 0xe0, 0xed, 0x16,
    0x2f, 0xe5, 0x31, 0x2e, 0xe7, 0xb2, 0xda, 0xda, 0x08, 0xfa, 0xee, 0xed,
    0x13, 0xf8, 0xfe, 0x02, 0x1b, 0xf7, 0xc4, 0x03, 0xdb, 0x0c, 0xf3, 0x0f,
    0x1c, 0xed, 0xf9, 0x01, 0xd2, 0x32, 0xe8, 0xdc, 0x68, 0xc3, 0x50, 0x1c,
    0xdc, 0xcc, 0xf2, 0xe2, 0xf7, 0x32, 0x0b, 0xea, 0x26, 0xd6, 0xf8, 0xd5,
    0x21, 0x00, 0x2c, 0xd9, 0x13, 0xe1, 0xf0, 0x18, 0x17, 0x03, 0xf6, 0xd1,
    0xbb, 0x1f, 0x0a, 0xd4, 0xfc, 0xc0, 0x22, 0x1a, 0xe4, 0xf5, 0x13, 0xf4,
    0x19, 0xdf, 0xe6, 0x0c, 0xfd, 0xe1, 0xe5, 0xe7, 0x0d, 0x01, 0xfe, 0xc0,
    0xd0, 0xfd, 0xe8, 0x08, 0x0d, 0x07, 0xd3, 0xe3, 0xf6, 0x13, 0xe5, 0xf0,
    0x7f, 0xd0, 0x4b, 0x1f, 0xca, 0xb2, 0xcc, 0xb6, 0x0f, 0xec, 0xf5, 0x57,
    0xf0, 0x15, 0x0c, 0x2a, 0x1b, 0xdb, 0xfb, 0xff, 0x02, 0x35, 0xe9, 0x30,
    0x14, 0xe5, 0x18, 0xda, 0xf7, 0x1a, 0xf5, 0xce, 0x40, 0x1e, 0x4f, 0xcf,
    0xfe, 0x11, 0x09, 0xf6, 0xed, 0xbb, 0xb7, 0x70, 0xd9, 0x1d, 0x4c, 0x17,
    0x2a, 0x63, 0xed, 0xe5, 0xfa, 0x15, 0xf9, 0x2a, 0xdc, 0xe4, 0x24, 0xd9,
    0x25, 0x04, 0xda, 0xde, 0x3b, 0xfa, 0x33, 0xc8, 0xf4, 0x22, 0x33, 0x0a,
    0x23, 0xeb, 0xfd, 0x36, 0x01, 0x10, 0xd0, 0xfa, 0x17, 0xc1, 0x2c, 0xcb,
    0x1a, 0x1d, 0xf9, 0x3c, 0x08, 0x03, 0xfa, 0xea, 0xd7, 0x10, 0xfb, 0xf7,
    0x58, 0xf0, 0x55, 0xf0, 0xe0, 0xfb, 0xf7, 0xf2, 0x12, 0x32, 0xf4, 0xf8,
    0x06, 0x06, 0x03, 0x28, 0xe5, 0x32, 0xe5, 0x35, 0x11, 0xd0, 0x14, 0x0b,
    0x1d, 0x09, 0x1a, 0xfd, 0xdd, 0x16, 0xf1, 0xee, 0xeb, 0xf6, 0x16, 0x33,
    0xe7, 0x14, 0x0c, 0x21, 0x24, 0x18, 0x2a, 0x04, 0xfe, 0x02, 0xe4, 0x01,
    0xf3, 0xd6, 0xfc, 0x15, 0x4f, 0xb3, 0x54, 0x04, 0x1e, 0x3f, 0xf5, 0x0b,
    0xe9, 0xfd, 0xfc, 0xf3, 0xfd, 0xf1, 0x0b, 0x1b, 0x09, 0xe4, 0xe5, 0x1d,
    0xe6, 0x24, 0xf6, 0xe1, 0x12, 0x01, 0xf8, 0x04, 0xe1, 0x1b, 0xca, 0x27,
    0x1b, 0xd5, 0x05, 0xf2, 0x00, 0xef, 0xfe, 0x08, 0xe9, 0xfa, 0xf4, 0xfc,
    0xb5, 0xff, 0xf4, 0xf8, 0xf6, 0x0b, 0xf0, 0x18, 0x0f, 0x09, 0x07, 0x16,
    0xe0, 0xe3, 0x2a, 0xfe, 0xde, 0xec, 0xda, 0x1e, 0xf6, 0xfc, 0x3b, 0x23,
    0x21, 0xe1, 0x01, 0x0e, 0xd8, 0x48, 0x01, 0xdc, 0xe5, 0xed, 0x34, 0xee,
    0xa7, 0xf0, 0x07, 0x0e, 0x51, 0xf5, 0x1e, 0x4c, 0xd3, 0x12, 0xfc, 0x0e,
    0x02, 0xfb, 0xd7, 0x1e, 0x63, 0xda, 0x2f, 0x4d, 0x34, 0x00, 0xdf, 0xee,
    0x02, 0x2f, 0xda, 0xf6, 0xe6, 0xf9, 0x0f, 0xfc, 0xe1, 0xf6, 0xd4, 0xfb,
    0xe3, 0x05, 0xfc, 0x2a, 0xe4, 0xe4, 0x26, 0xf1, 0xe9, 0x00, 0xea, 0x04,
    0xfc, 0xf2, 0x64, 0x22, 0x18, 0xc8, 0xf8, 0x0e, 0xfa, 0x12, 0x0c, 0x01,
    0x81, 0x04, 0x2d, 0xea, 0xc0, 0xe5, 0x08, 0xee, 0x0c, 0x2e, 0x2b, 0x02,
    0xee, 0x05, 0x08, 0x1c, 0xcc, 0x30, 0xd3, 0x1a, 0xf0, 0xc2, 0x14, 0x11,
    0x02, 0xfc, 0x0e, 0xea, 0xdc, 0xeb, 0xec, 0xd8, 0xe0, 0xe1, 0x02, 0x4c,
    0xf1, 0x00, 0x1a, 0x13, 0x29, 0x29, 0x37, 0xf5, 0xcb, 0x05, 0xfa, 0xd5,
    0xf2, 0xe8, 0xd6, 0x40, 0x47, 0xe5, 0x6b, 0xf3, 0x1e, 0x3b, 0xf0, 0xe8,
    0xe4, 0xf9, 0xe4, 0xe6, 0xf0, 0x0a, 0x01, 0x45, 0x21, 0xeb, 0xce, 0x11,
    0xbe, 0x2b, 0x1b, 0xff, 0xee, 0x03, 0x0b, 0x10, 0xdc, 0x07, 0x8f, 0x15,
    0x01, 0xef, 0xee, 0xfb, 0x03, 0xe4, 0xff, 0x07, 0x09, 0xf8, 0xdd, 0xde,
    0x94, 0xed, 0xfd, 0x12, 0xf7, 0x11, 0x08, 0x05, 0x18, 0xed, 0xea, 0x06,
    0xcd, 0xba, 0xf0, 0xdd, 0x0e, 0xf0, 0x0a, 0xfd, 0x11, 0xb7, 0x02, 0x01,
    0xdb, 0x0b, 0x1a, 0xef, 0xdb, 0xff, 0xed, 0xff, 0x0d, 0xdf, 0xe5, 0xf6,
    0x21, 0xec, 0xd2, 0xf2, 0xfb, 0xfa, 0xeb, 0xff, 0x06, 0xcb, 0x0a, 0xe3,
    0x0a, 0xf1, 0x1e, 0x0c, 0xe1, 0x10, 0x30, 0xef, 0x15, 0xe1, 0x1e, 0x0e,
    0x21, 0x07, 0x2e, 0x07, 0x05, 0xfb, 0xf5, 0xb2, 0xee, 0x46, 0x1d, 0x27,
    0x0e, 0xfd, 0xfe, 0x00, 0xc3, 0xc7, 0xe0, 0xff, 0x04, 0xd6, 0x1a, 0xf3,
    0xf8, 0xd1, 0x10, 0x1b, 0x15, 0x09, 0x16, 0x0b, 0xf2, 0x02, 0xdb, 0x34,
    0xf5, 0xbf, 0x10, 0x03, 0x1d, 0xe0, 0xef, 0xdb, 0x0b, 0xe2, 0xfb, 0xc9,
    0xf3, 0x01, 0x10, 0xf0, 0xec, 0x04, 0xfa, 0xf3, 0x1b, 0x06, 0xeb, 0xf1,
    0xe9, 0x05, 0xc9, 0xec, 0x00, 0xe3, 0x03, 0x05, 0xec, 0x10, 0xc6, 0xd7,
    0x2c, 0x2d, 0xfe, 0xee, 0xf1, 0x03, 0x23, 0xf1, 0x25, 0x22, 0x15, 0x21,
    0xe5, 0x0c, 0x15, 0x11, 0xf3, 0x10, 0xe0, 0xf3, 0x1d, 0x05, 0x1f, 0x0f,
    0x1e, 0xdb, 0x23, 0x03, 0xfb, 0x13, 0xd4, 0x05, 0xe9, 0x18, 0x18, 0x28,
    0xea, 0x08, 0xf2, 0xdd, 0xe0, 0xee, 0x28, 0xe0, 0xee, 0x07, 0x00, 0xfd,
    0x0b, 0x23, 0xe8, 0xf8, 0x11, 0xea, 0xe0, 0x33, 0x04, 0xc7, 0xf0, 0x10,
    0xe7, 0x0a, 0xe4, 0xf2, 0x02, 0x0d, 0x00, 0xf8, 0x13, 0xef, 0xf4, 0xee,
    0xe3, 0xc5, 0xea, 0xd6, 0x08, 0x25, 0x0d, 0xfe, 0x11, 0x0d, 0x02, 0xef,
    0xdd, 0x0b, 0xfe, 0xe2, 0x05, 0xe8, 0x07, 0x13, 0xfd, 0xf5, 0xdd, 0xf4,
    0x14, 0xe2, 0xd3, 0xf3, 0xf7, 0x01, 0xf9, 0x17, 0x0e, 0xf0, 0xec, 0xfd,
    0xe7, 0xcb, 0x24, 0xe0, 0xd3, 0xd7, 0x48, 0xec, 0x29, 0x05, 0x26, 0x22,
    0x16, 0x08, 0xf3, 0x1f, 0xff, 0xfe, 0xfc, 0xe1, 0xf9, 0x0f, 0x15, 0x2f,
    0xf0, 0xd9, 0xd4, 0x15, 0xf8, 0xf8, 0x1c, 0xde, 0x0b, 0x17, 0x02, 0x0b,
    0xe7, 0xd6, 0xfb, 0xf7, 0xef, 0xf8, 0x0f, 0xfb, 0x0c, 0x01, 0x0b, 0x7f,
    0xf4, 0x0a, 0xfd, 0xf6, 0x16, 0x0f, 0xfd, 0xe4, 0xfc, 0x0d, 0x01, 0x06,
    0xff, 0x2f, 0xfc, 0x21, 0xf4, 0xfb, 0xe6, 0x1b, 0x21, 0x02, 0x0c, 0x18,
    0x14, 0x11, 0x01, 0x15, 0xc6, 0x0f, 0xec, 0xe9, 0xfc, 0xfc, 0x0f, 0x23,
    0xe0, 0x06, 0x02, 0xee, 0x1f, 0x1c, 0x1e, 0x1f, 0xfd, 0x42, 0x03, 0xff,
    0xf5, 0xf0, 0xf2, 0x25, 0x0f, 0xc7, 0x65, 0x1c, 0x29, 0xf7, 0x28, 0x05,
    0xec, 0x1f, 0xfb, 0xe7, 0x08, 0xfd, 0x34, 0xf5, 0xfa, 0x1c, 0xfb, 0x1f,
    0xfe, 0x07, 0x03, 0x0c, 0xf6, 0x0f, 0xfe, 0x1a, 0xe0, 0xfe, 0xbe, 0x13,
    0x19, 0xfc, 0xfc, 0x09, 0x18, 0xfd, 0x09, 0xfb, 0xff, 0x03, 0xe9, 0xee,
    0xea, 0xe3, 0x0c, 0xff, 0xf3, 0xf6, 0xf0, 0x00, 0xda, 0xf8, 0xfb, 0x1e,
    0xee, 0xfd, 0x0a, 0x0d, 0xd0, 0x03, 0xf0, 0x06, 0x2e, 0xfc, 0x06, 0x15,
    0xfc, 0xf8, 0x0d, 0x08, 0xf5, 0x5f, 0xef, 0xe7, 0x17, 0xe2, 0x22, 0x06,
    0xbd, 0x1a, 0x25, 0x0e, 0xe8, 0xea, 0x04, 0x2e, 0xdd, 0xf8, 0x02, 0xfb,
    0x0e, 0x0d, 0xc7, 0x02, 0x46, 0xf0, 0x29, 0x00, 0x05, 0x42, 0x37, 0xd9,
    0xf2, 0x42, 0xe8, 0xe8, 0xe1, 0xed, 0xd5, 0x25, 0xe4, 0xe2, 0xd6, 0x13,
    0xdb, 0xee, 0xe8, 0x2c, 0xe7, 0xef, 0xfd, 0xf7, 0xa1, 0x02, 0x02, 0xf0,
    0x1d, 0xfe, 0xf8, 0x0d, 0x06, 0xd5, 0x01, 0x08, 0x08, 0x32, 0xec, 0xfa,
    0x16, 0x04, 0x14, 0xe1, 0xb7, 0x0b, 0x09, 0xed, 0xfb, 0x0d, 0x23, 0x15,
    0xbf, 0xe9, 0x05, 0x0f, 0xba, 0x28, 0xe1, 0x1a, 0x0f, 0xd0, 0x1d, 0x1e,
    0x0e, 0x06, 0xf3, 0x11, 0x06, 0x0d, 0xce, 0xf5, 0xe4, 0xb7, 0x17, 0x10,
    0xe9, 0xe4, 0xc3, 0xf8, 0x17, 0x06, 0x3e, 0x02, 0xc4, 0x30, 0xf1, 0xe5,
    0x06, 0xc9, 0xf9, 0x1b, 0x0c, 0x33, 0x7f, 0x14, 0x37, 0xd9, 0x07, 0xdc,
    0xcb, 0x18, 0xd1, 0xde, 0xfa, 0xf4, 0x2d, 0xdb, 0xdd, 0x02, 0xd7, 0x0f,
    0xbc, 0x0f, 0x44, 0x03, 0xb3, 0x04, 0x06, 0x08, 0xac, 0x17, 0xb9, 0x0e,
    0xfc, 0xed, 0x09, 0xfb, 0x15, 0xf2, 0xef, 0x14, 0x0e, 0xf9, 0xb3, 0xea,
    0xc8, 0xb9, 0xf1, 0xf9, 0xfc, 0xed, 0xed, 0xfd, 0x00, 0x08, 0x18, 0x06,
    0x06, 0x1d, 0x0d, 0x00, 0xf3, 0xef, 0xf9, 0x23, 0x0f, 0xbf, 0x17, 0x1c,
    0x2e, 0x0f, 0x07, 0xe7, 0xc6, 0x2b, 0xf6, 0xe8, 0xd2, 0x0f, 0x1d, 0x23,
    0x09, 0x08, 0x00, 0xf8, 0x16, 0x00, 0x17, 0x2d, 0x27, 0x2a, 0x09, 0xee,
    0xf6, 0xe5, 0xf6, 0x2b, 0x20, 0xe4, 0x74, 0x1a, 0x3d, 0xfe, 0x0d, 0xf2,
    0xd8, 0x2a, 0x00, 0xe7, 0xfc, 0xf7, 0x26, 0x18, 0xdb, 0x0a, 0xe3, 0x21,
    0xec, 0x07, 0x10, 0x1a, 0xe0, 0xe0, 0xff, 0xfe, 0xae, 0x04, 0xc3, 0x2f,
    0x06, 0xf6, 0xf2, 0x17, 0x21, 0x0f, 0x00, 0xf3, 0x05, 0x14, 0xcd, 0x04,
    0xb9, 0xe2, 0x12, 0x24, 0x02, 0x00, 0xeb, 0xf3, 0xec, 0xf4, 0xf8, 0xfa,
    0x07, 0xeb, 0x12, 0xed, 0xcd, 0xf9, 0xcf, 0xfe, 0xf6, 0x0d, 0xff, 0x0a,
    0xf9, 0xd3, 0xce, 0x21, 0xf4, 0xfa, 0xec, 0xf9, 0x01, 0xf8, 0x13, 0xd9,
    0xbf, 0x19, 0x1c, 0x21, 0xdd, 0xfc, 0x23, 0x11, 0x0d, 0x27, 0xd7, 0xf6,
    0x44, 0xee, 0xcc, 0x10, 0x1a, 0xec, 0x42, 0xfe, 0xfe, 0x1c, 0xf1, 0xea,
    0xd7, 0x2f, 0xff, 0xe4, 0xdc, 0xfc, 0xe2, 0x21, 0xca, 0x38, 0xd0, 0xf9,
    0xfa, 0xdf, 0xef, 0x0a, 0xde, 0xfe, 0x0c, 0xec, 0xab, 0xf4, 0xec, 0xf7,
    0xe7, 0x09, 0x12, 0x09, 0xfe, 0xcb, 0x08, 0x24, 0x11, 0xec, 0xe9, 0xe7,
    0x01, 0x0e, 0x04, 0xd2, 0xc6, 0x1a, 0x0b, 0x0e, 0xdb, 0xe8, 0x2c, 0x16,
    0xcb, 0xec, 0x38, 0x04, 0xe2, 0x0c, 0xe8, 0x28, 0x09, 0xbb, 0x0c, 0x29,
    0x21, 0xeb, 0x0b, 0xdd, 0x04, 0x0f, 0xd5, 0xe8, 0xce, 0xed, 0x1b, 0x0e,
    0x07, 0xfc, 0xf0, 0xe5, 0x04, 0xc0, 0x35, 0x46, 0x03, 0x10, 0x3e, 0xe5,
    0x12, 0xf8, 0xf5, 0x3d, 0x03, 0x1d, 0x7f, 0x1b, 0x4b, 0xdd, 0x17, 0xba,
    0x0d, 0x30, 0xf9, 0xe4, 0xe8, 0xff, 0x13, 0xd7, 0xdf, 0x44, 0xe2, 0x21,
    0xe1, 0xd4, 0x0e, 0x18, 0xb3, 0x09, 0x1d, 0xef, 0xcb, 0x14, 0xa8, 0x13,
    0xe4, 0xf2, 0xec, 0x25, 0x24, 0xdc, 0xf4, 0xcc, 0x12, 0xf5, 0xc8, 0xde,
    0xc5, 0xdd, 0x00, 0x05, 0x01, 0x09, 0xf6, 0xd7, 0xde, 0xc9, 0x04, 0x21,
    0x13, 0x06, 0x21, 0xd5, 0xe2, 0x23, 0x1d, 0xef, 0xe6, 0xe7, 0xd1, 0xff,
    0x10, 0xdc, 0x0a, 0xdd, 0x19, 0xdf, 0x0d, 0x13, 0xf4, 0x46, 0xdc, 0xdf,
    0xfd, 0xd0, 0xc6, 0xca, 0xef, 0xf3, 0xff, 0x11, 0x19, 0xe5, 0x13, 0x0c,
    0xdc, 0x0d, 0x35, 0x1d, 0xd4, 0x21, 0x05, 0x14, 0x3f, 0xd6, 0x14, 0x0a,
    0x37, 0xe3, 0xf5, 0x07, 0xe9, 0x27, 0xf0, 0xb5, 0x12, 0x39, 0x0a, 0x0e,
    0xdf, 0xe8, 0xe8, 0x16, 0xe9, 0xfc, 0x15, 0xd1, 0x14, 0x05, 0x18, 0x0a,
    0xf6, 0xd1, 0xf2, 0x09, 0x0b, 0xd0, 0x01, 0xfc, 0x09, 0x0b, 0xf2, 0x29,
    0xeb, 0x3d, 0xd6, 0xe4, 0x2f, 0xff, 0xf0, 0xd3, 0xcb, 0xbe, 0xfd, 0xd9,
    0x2f, 0xf8, 0xfb, 0xd9, 0xf9, 0xf2, 0xe4, 0xbe, 0xf6, 0x02, 0xf8, 0xec,
    0xd8, 0x03, 0xe1, 0xc8, 0x04, 0xc9, 0x2d, 0x00, 0xe2, 0x26, 0xe6, 0x0e,
    0xed, 0xf2, 0x11, 0xe5, 0x20, 0xfd, 0x01, 0xe9, 0x14, 0xfa, 0x07, 0xee,
    0xf6, 0x04, 0xdd, 0x09, 0xf2, 0xfa, 0xf3, 0x00, 0xfa, 0x2c, 0x17, 0xce,
    0x0c, 0xe2, 0x22, 0xf1, 0x19, 0x2f, 0x16, 0x21, 0xf7, 0x30, 0x28, 0x15,
    0xe7, 0xe9, 0x04, 0xe6, 0x50, 0xf0, 0x00, 0xe7, 0xf4, 0xf9, 0xea, 0xea,
    0x16, 0x19, 0xd3, 0xfb, 0xfd, 0xf1, 0xf0, 0xeb, 0x0b, 0xd3, 0x1a, 0x11,
    0xfd, 0x0f, 0xea, 0x05, 0x16, 0x09, 0x1f, 0xed, 0xe5, 0x0e, 0x1b, 0x0f,
    0x22, 0x0f, 0x2c, 0xd2, 0xea, 0x1f, 0x0a, 0xf6, 0x29, 0xd9, 0xec, 0xff,
    0xfb, 0x0b, 0xe7, 0xf1, 0x1e, 0xca, 0x1b, 0x1e, 0xd0, 0x3f, 0xcc, 0x26,
    0xfa, 0xe4, 0xce, 0xe1, 0xf1, 0x21, 0x2e, 0x0f, 0x2e, 0xeb, 0xf7, 0x1a,
    0xdd, 0x18, 0x24, 0x2b, 0xe8, 0x25, 0x0e, 0x0b, 0x3f, 0xfb, 0x28, 0xff,
    0x46, 0x0e, 0x0c, 0x0b, 0xdd, 0x41, 0xf0, 0xde, 0x1d, 0x3e, 0x13, 0x2a,
    0xd4, 0x02, 0x09, 0x01, 0x21, 0x0e, 0x1b, 0xd5, 0x10, 0x3d, 0x04, 0xfe,
    0x1f, 0xe4, 0x01, 0xee, 0xd2, 0x0f, 0xee, 0xf3, 0x52, 0x10, 0x19, 0x7f,
    0xef, 0x36, 0xe3, 0x05, 0x2b, 0x10, 0x04, 0xe0, 0xd9, 0xbe, 0xc7, 0x2b,
    0x29, 0x29, 0xf9, 0xf2, 0xce, 0x3c, 0x15, 0xca, 0xc6, 0xe2, 0xfa, 0x0a,
    0x04, 0xde, 0x01, 0xe6, 0x0c, 0xf9, 0xf1, 0x15, 0x18, 0x34, 0xfb, 0xf7,
    0xcf, 0xb7, 0xc2, 0xcb, 0xf5, 0xad, 0xfb, 0x42, 0x16, 0xf8, 0x37, 0x1d,
    0xd4, 0x21, 0x1c, 0xfb, 0xa8, 0x02, 0xfd, 0x31, 0x65, 0xcf, 0x07, 0x1d,
    0x3a, 0xe8, 0xea, 0xde, 0xeb, 0x48, 0x10, 0xd3, 0x19, 0x11, 0xc5, 0xce,
    0xee, 0xe8, 0xf7, 0x4a, 0x08, 0x17, 0x2b, 0xee, 0x06, 0x22, 0x0b, 0x37,
    0xbe, 0xb8, 0xfe, 0x06, 0x23, 0xe6, 0xee, 0x16, 0x37, 0x11, 0xf0, 0x09,
    0xfd, 0x29, 0x06, 0xe1, 0xde, 0x08, 0xd8, 0xe7, 0xb9, 0xd9, 0x05, 0xe1,
    0x3f, 0xea, 0x0e, 0xdb, 0xf8, 0x05, 0xe6, 0xb0, 0xe1, 0x1d, 0x02, 0xf0,
    0xeb, 0xff, 0xd8, 0xcd, 0xf5, 0xbd, 0x15, 0xf6, 0xc4, 0x1d, 0xe0, 0x51,
    0xd7, 0xd4, 0xf3, 0xef, 0x12, 0x0b, 0xe7, 0xe5, 0x05, 0xf2, 0x06, 0xd6,
    0x12, 0x01, 0xe0, 0x02, 0xea, 0xaa, 0xe8, 0xe8, 0xc6, 0x47, 0xd2, 0xfd,
    0x1e, 0xc8, 0x1c, 0xf9, 0x23, 0x2a, 0xf6, 0x45, 0xeb, 0x0e, 0xf9, 0xcc,
    0xc8, 0xdb, 0x10, 0xec, 0x57, 0xef, 0x08, 0xfd, 0xdf, 0x06, 0xe3, 0xfd,
    0xe1, 0x0b, 0xb9, 0xf9, 0xf5, 0xf1, 0xf9, 0xee, 0x14, 0xd8, 0x1c, 0xf3,
    0xd6, 0x04, 0xec, 0x42, 0xea, 0x03, 0x29, 0xf9, 0xcb, 0x11, 0x08, 0x2b,
    0x1e, 0x16, 0x36, 0xc8, 0x09, 0x2e, 0x03, 0xf2, 0x17, 0xd3, 0x02, 0x03,
    0x3e, 0xfe, 0x09, 0x08, 0x09, 0x05, 0x08, 0x05, 0xee, 0x47, 0xe1, 0x1d,
    0xea, 0xe5, 0xef, 0xef, 0x05, 0xf7, 0x1b, 0x42, 0x20, 0xe7, 0x3b, 0x03,
    0xce, 0x0b, 0x3b, 0x2e, 0x08, 0xfc, 0x36, 0x37, 0x7f, 0x08, 0x18, 0xf5,
    0x2f, 0x27, 0xea, 0xdd, 0xdc, 0x6a, 0xed, 0x05, 0x2a, 0x18, 0xcc, 0x05,
    0xe2, 0x14, 0xf9, 0x45, 0x04, 0x15, 0x23, 0xe2, 0x03, 0x41, 0xf9, 0x0a,
    0x1b, 0xec, 0x0e, 0xeb, 0x09, 0xff, 0xf2, 0x03, 0x38, 0x0b, 0x1a, 0x22,
    0xb7, 0x45, 0xd9, 0xfd, 0x07, 0xf4, 0xdf, 0x08, 0x31, 0x2e, 0x22, 0xef,
    0xed, 0x00, 0x06, 0xf6, 0x05, 0x08, 0xf2, 0xf1, 0xe1, 0x0b, 0xf6, 0x14,
    0x02, 0x15, 0xed, 0x0d, 0xed, 0x1c, 0xf6, 0xef, 0x04, 0xe0, 0x0e, 0xeb,
    0x04, 0xf3, 0xfc, 0x05, 0x04, 0x3c, 0x0f, 0xdd, 0x30, 0xfb, 0xdd, 0x0a,
    0x11, 0x26, 0xd9, 0xf3, 0xed, 0x3c, 0xd9, 0xf2, 0xd3, 0xec, 0x28, 0x15,
    0xcc, 0xe5, 0x2a, 0xe2, 0x0c, 0x06, 0xfb, 0xf6, 0x07, 0x0d, 0x32, 0x0f,
    0x2c, 0x29, 0x2a, 0xed, 0xfd, 0x02, 0xe2, 0xfb, 0x19, 0xe9, 0xfc, 0xe2,
    0x0e, 0x1a, 0xfa, 0x26, 0x03, 0x1a, 0xe2, 0xee, 0xbe, 0x18, 0xe5, 0x02,
    0x23, 0xd8, 0x28, 0xe4, 0x09, 0xc6, 0xf9, 0x17, 0x24, 0xfd, 0xbf, 0x36,
    0xfe, 0xee, 0xf7, 0x12, 0xfe, 0x02, 0x16, 0xde, 0x46, 0xf7, 0x0a, 0x16,
    0xc0, 0x17, 0x11, 0xe7, 0x06, 0x3b, 0x08, 0xfb, 0x52, 0x02, 0x53, 0xbe,
    0x11, 0xeb, 0xf6, 0xca, 0xde, 0xef, 0xff, 0x1b, 0xd8, 0xde, 0x0e, 0x1f,
    0x07, 0x16, 0x1c, 0xc9, 0xb2, 0x22, 0xf0, 0xf4, 0xfe, 0xe6, 0x7f, 0xe0,
    0x0a, 0x08, 0x07, 0xe7, 0xd1, 0x01, 0x0f, 0xe3, 0x0b, 0xf9, 0x44, 0x06,
    0x00, 0x2f, 0xf0, 0x42, 0x01, 0xf8, 0xf9, 0x02, 0x27, 0x0e, 0x05, 0xd6,
    0x28, 0x10, 0xec, 0x1b, 0xe4, 0x03, 0xfc, 0xfa, 0xf6, 0x46, 0x18, 0x02,
    0x63, 0x00, 0x30, 0xbd, 0x20, 0xe2, 0xfc, 0xe8, 0x36, 0x13, 0x27, 0xbf,
    0xff, 0x03, 0xd9, 0xe6, 0x14, 0xb4, 0xdc, 0xd0, 0x17, 0x1f, 0xd8, 0xf4,
    0xf3, 0xff, 0xde, 0xe6, 0xce, 0xfd, 0xe6, 0x12, 0x0b, 0xd2, 0xf7, 0xef,
    0x24, 0xd8, 0xed, 0xdd, 0xcc, 0x3f, 0xf2, 0xd1, 0x10, 0xf2, 0xd3, 0x15,
    0xe8, 0xf3, 0xe5, 0xef, 0xe3, 0x32, 0xe6, 0xe5, 0xd4, 0xe0, 0x2d, 0xf3,
    0xeb, 0xd8, 0x46, 0x07, 0xf1, 0xde, 0xf3, 0x16, 0xe5, 0x13, 0x30, 0x2c,
    0x16, 0x19, 0x20, 0xe2, 0xf5, 0xe8, 0xf2, 0xf1, 0x1c, 0x03, 0xe9, 0xee,
    0x18, 0x1f, 0xf6, 0x13, 0xf8, 0x0d, 0xfd, 0xfa, 0xde, 0x08, 0xf6, 0x18,
    0x10, 0xd6, 0xf4, 0xeb, 0x1c, 0xcf, 0xea, 0x05, 0xcc, 0x07, 0x02, 0x09,
    0xff, 0xd8, 0xf3, 0xf4, 0xdf, 0x1f, 0x1f, 0xe6, 0xf4, 0x0a, 0xca, 0xd8,
    0xf5, 0xd4, 0xff, 0xe7, 0x13, 0xd7, 0x05, 0x0a, 0xed, 0x15, 0xca, 0x08,
    0x08, 0x13, 0x12, 0xdf, 0xeb, 0x26, 0x02, 0x0e, 0xd2, 0xef, 0x0e, 0xdc,
    0xc3, 0x09, 0x32, 0xf3, 0xe0, 0xfb, 0xeb, 0xf8, 0x03, 0x19, 0xec, 0xee,
    0x2c, 0xeb, 0xec, 0x10, 0xf5, 0x1c, 0xd7, 0x09, 0xf9, 0xd2, 0xe3, 0xdd,
    0xd0, 0x0a, 0x08, 0xfb, 0xfa, 0xf3, 0x12, 0xf1, 0x02, 0x24, 0x64, 0xfa,
    0xf7, 0x10, 0xe4, 0xe0, 0xf4, 0xc1, 0xe7, 0xe3, 0x7f, 0xee, 0x1c, 0x5e,
    0xd7, 0xff, 0xde, 0xfe, 0x1c, 0x11, 0xf5, 0xee, 0xc8, 0x06, 0x14, 0x1a,
    0xf0, 0xe3, 0x44, 0xfa, 0x03, 0x55, 0x2a, 0xdf, 0xfe, 0x0e, 0xea, 0x16,
    0x2d, 0xe2, 0xf3, 0xcf, 0x15, 0xed, 0x24, 0x0b, 0xbd, 0x28, 0xc3, 0xf2,
    0x0b, 0xdf, 0xd8, 0xe5, 0xd2, 0x08, 0x19, 0x18, 0xf1, 0xff, 0x19, 0x17,
    0xdb, 0x43, 0x06, 0xee, 0xe1, 0xd9, 0xe6, 0x17, 0x29, 0xd8, 0xd6, 0xe4,
    0x28, 0xc5, 0x37, 0x0d, 0xfb, 0x3e, 0xd5, 0xd4, 0xe8, 0xea, 0xf6, 0xf2,
    0xc7, 0x1a, 0x33, 0x22, 0xee, 0x05, 0x0b, 0xfe, 0xfc, 0x38, 0x68, 0xe8,
    0xf1, 0x12, 0xcb, 0x11, 0x0b, 0xec, 0xfe, 0xd1, 0x61, 0xf9, 0x14, 0x62,
    0xe7, 0x57, 0xce, 0xe1, 0x20, 0xec, 0xfc, 0xf6, 0xba, 0x1d, 0xe0, 0xd9,
    0xb9, 0xc6, 0xb1, 0x0e, 0xed, 0xed, 0x18, 0xe8, 0x0b, 0xf7, 0xe0, 0xe4,
    0xcd, 0xb0, 0x12, 0xeb, 0x07, 0xe5, 0xde, 0xf0, 0xec, 0xe6, 0xde, 0xc0,
    0xf6, 0x00, 0x14, 0x12, 0xda, 0x12, 0xeb, 0xe9, 0xe1, 0xd3, 0xd2, 0xd8,
    0xce, 0xf6, 0x47, 0xf2, 0x0b, 0xbd, 0xeb, 0xef, 0xea, 0xea, 0xc2, 0xf2,
    0x2b, 0xfe, 0xf7, 0x13, 0xcf, 0xf2, 0xf8, 0xe1, 0xf3, 0xb9, 0xd8, 0xe5,
    0xe1, 0x2d, 0xd1, 0xe0, 0xd6, 0xea, 0xce, 0xf8, 0xf5, 0xe9, 0x77, 0xe7,
    0xe4, 0xff, 0xec, 0xde, 0xcd, 0xb9, 0xf7, 0xee, 0x52, 0xdf, 0xe5, 0x70,
    0x1f, 0xe7, 0xf1, 0x9e, 0x0a, 0xf2, 0x02, 0x0a, 0x24, 0x21, 0x11, 0x06,
    0xf1, 0x16, 0xfc, 0x15, 0x05, 0x00, 0xf4, 0x13, 0x2d, 0x1a, 0x09, 0x0b,
    0xf0, 0x1a, 0x03, 0x17, 0xe2, 0x1a, 0xe4, 0xe0, 0x1a, 0xe9, 0x08, 0xea,
    0xf2, 0x02, 0x0b, 0x0a, 0x02, 0x2f, 0x0f, 0xf2, 0x2d, 0x08, 0xf5, 0x0b,
    0x03, 0x0e, 0xe2, 0x0b, 0x12, 0x39, 0xee, 0xd6, 0xdb, 0xe3, 0x19, 0x16,
    0xce, 0xf4, 0x1a, 0xe6, 0x0b, 0xf0, 0xf2, 0xd3, 0x0b, 0xfb, 0x23, 0x14,
    0x2d, 0x16, 0xfd, 0xee, 0xfa, 0x00, 0xf8, 0x09, 0x09, 0xf5, 0xf2, 0x11,
    0x2a, 0x19, 0x1c, 0x07, 0xee, 0x12, 0xe5, 0x15, 0xe4, 0x0f, 0x0f, 0xf3,
    0x10, 0xde, 0x0e, 0xef, 0x0c, 0xf9, 0xe4, 0x1b, 0xf8, 0x25, 0xc4, 0x39,
    0xec, 0xe4, 0xf6, 0x0d, 0x13, 0x09, 0x03, 0xf4, 0x56, 0x04, 0xf5, 0x08,
    0xce, 0x29, 0x1d, 0xee, 0xf7, 0x4b, 0x0a, 0x0a, 0x3a, 0xff, 0x0e, 0xec,
    0x15, 0xe5, 0xfe, 0xf4, 0xf2, 0xd6, 0xf1, 0x24, 0xeb, 0xd7, 0xf9, 0x13,
    0xf6, 0x09, 0xf7, 0xe6, 0xd7, 0x19, 0xe7, 0xe0, 0xdf, 0xf8, 0x7f, 0xed,
    0x00, 0x2b, 0xfc, 0xed, 0xe1, 0x04, 0xf3, 0xfd, 0x01, 0xd9, 0x42, 0x12,
    0x06, 0x2e, 0xe3, 0x3b, 0x08, 0xfd, 0xf1, 0x18, 0x02, 0x05, 0x15, 0xcd,
    0x38, 0xfc, 0xf7, 0x0a, 0xe2, 0x24, 0xfb, 0x06, 0xfe, 0x44, 0x04, 0xfc,
    0x51, 0x0d, 0x0c, 0xd9, 0x31, 0xf4, 0x08, 0xeb, 0x2f, 0x14, 0x25, 0xd4,
    0xfc, 0x01, 0xd4, 0xea, 0xe1, 0xd1, 0x0b, 0xc4, 0x3b, 0x14, 0x06, 0xe0,
    0xe9, 0x0c, 0xf9, 0x0f, 0xce, 0xe5, 0xe2, 0x0f, 0x11, 0xb2, 0x07, 0xf8,
    0xe4, 0xbb, 0xd5, 0xe9, 0xe1, 0x3f, 0x10, 0xcd, 0x4c, 0x01, 0xcf, 0x12,
    0xee, 0xd7, 0xca, 0xcd, 0xc6, 0x1c, 0xd6, 0xd0, 0xec, 0xec, 0x14, 0x34,
    0xb8, 0xca, 0x1c, 0xf0, 0xdf, 0xd4, 0xd2, 0x10, 0xf4, 0xf1, 0x0b, 0x1c,
    0x28, 0x23, 0x26, 0xdf, 0xf1, 0x01, 0xf6, 0xff, 0x07, 0xde, 0xf3, 0xf8,
    0x0b, 0x1c, 0x04, 0x0a, 0x0c, 0x19, 0xea, 0x2b, 0xce, 0xf3, 0xf3, 0x06,
    0xfd, 0xbd, 0xe1, 0xfa, 0x00, 0xd6, 0xc9, 0xfa, 0x3a, 0xed, 0x3d, 0xf9,
    0x25, 0x0d, 0x13, 0xf5, 0xfb, 0xee, 0xcc, 0x1a, 0xe6, 0xd2, 0x24, 0x26,
    0x13, 0x37, 0xe9, 0xe6, 0xfe, 0x26, 0x0b, 0xf4, 0xc9, 0x08, 0x1a, 0x2d,
    0x0d, 0x00, 0xfa, 0xf6, 0xf0, 0xed, 0x5c, 0x0c, 0x5f, 0x15, 0x18, 0xc3,
    0x32, 0x19, 0x10, 0xd7, 0x09, 0xb7, 0x51, 0xf7, 0xf8, 0xf2, 0xfb, 0x00,
    0xd4, 0xe8, 0x4e, 0xea, 0xfb, 0xdb, 0x1d, 0x0e, 0xd9, 0x11, 0xdc, 0x26,
    0x34, 0xd4, 0x1e, 0x18, 0xf9, 0xfc, 0x07, 0x0e, 0xd6, 0xe7, 0x04, 0xec,
    0xac, 0x02, 0x11, 0x4a, 0x4c, 0x43, 0xef, 0xf2, 0xcb, 0x1d, 0xf2, 0xe7,
    0x10, 0xf7, 0x40, 0x24, 0xe7, 0xe0, 0xda, 0xd1, 0x4e, 0xfa, 0xf3, 0xf8,
    0xf9, 0x10, 0x0f, 0xe1, 0xf6, 0xe2, 0xf0, 0x17, 0xe8, 0x01, 0xfa, 0x21,
    0xe8, 0x06, 0x85, 0x40, 0xdd, 0xf0, 0xf5, 0xf5, 0x1d, 0xfb, 0x54, 0x87,
    0x0c, 0x15, 0xea, 0xd2, 0x00, 0x11, 0x37, 0xf9, 0x31, 0x39, 0xf1, 0x08,
    0x7f, 0xf4, 0x2c, 0x18, 0xe9, 0xee, 0x33, 0x05, 0x18, 0xed, 0xf7, 0xee,
    0xc1, 0x01, 0x29, 0xd1, 0xf5, 0xe1, 0x0f, 0xfd, 0xec, 0x1d, 0xe5, 0xdc,
    0x0e, 0x01, 0xdd, 0xf7, 0xce, 0xda, 0x08, 0xe7, 0xd5, 0x00, 0xef, 0xf6,
    0xcd, 0x04, 0x09, 0x18, 0xf6, 0xe1, 0xe6, 0x37, 0x12, 0xd5, 0xf6, 0xcf,
    0x19, 0x18, 0x4e, 0xa8, 0xde, 0xee, 0xe2, 0xef, 0x35, 0xaf, 0xe1, 0x08,
    0xeb, 0xff, 0xf0, 0xd8, 0x0c, 0xb2, 0xf3, 0xdf, 0xe9, 0x0b, 0xf6, 0xfb,
    0x18, 0x1c, 0x1e, 0xb0, 0xc6, 0xf1, 0x14, 0xee, 0xf5, 0xed, 0xf6, 0x0d,
    0x0c, 0xfb, 0x0a, 0xe9, 0x04, 0xc3, 0xe9, 0x14, 0x69, 0xf2, 0x41, 0xf6,
    0x3b, 0xf6, 0xe7, 0x11, 0xd4, 0xf1, 0x4f, 0x0a, 0xe2, 0xfb, 0x24, 0xaf,
    0xf7, 0xf7, 0x66, 0xed, 0xf4, 0xc6, 0x22, 0xe9, 0xf2, 0x51, 0x0e, 0x17,
    0x45, 0x9b, 0xe1, 0x1c, 0xcc, 0x8e, 0xb7, 0xff, 0xd4, 0xb5, 0xc2, 0xb7,
    0xed, 0x0a, 0x06, 0x3a, 0x1a, 0xe3, 0x0b, 0xc2, 0xaa, 0xde, 0xb3, 0xee,
    0xf1, 0xe1, 0x2a, 0x08, 0xdd, 0xd3, 0xe0, 0xdf, 0xf4, 0x29, 0x1f, 0xdf,
    0xea, 0xda, 0xdd, 0xf5, 0xd7, 0xd1, 0xd6, 0xed, 0x09, 0xea, 0xec, 0x1f,
    0x32, 0xf9, 0x02, 0xcc, 0xed, 0xc8, 0xf3, 0xf2, 0xe4, 0xed, 0x0a, 0x2a,
    0xef, 0xfb, 0x12, 0x18, 0x29, 0x30, 0x4c, 0xd9, 0xfe, 0x10, 0xe0, 0xe5,
    0xdd, 0x42, 0xfb, 0x01, 0x2e, 0x03, 0x0b, 0x2f, 0x1a, 0x1d, 0xee, 0xd6,
    0xcc, 0x06, 0x27, 0xef, 0xe3, 0x02, 0x23, 0x7f, 0x00, 0xdb, 0x11, 0xde,
    0x03, 0x1b, 0x34, 0xfe, 0x2b, 0x0a, 0xfe, 0xf6, 0xcb, 0xf7, 0xcb, 0x10,
    0xf9, 0xf8, 0xe5, 0x11, 0x0f, 0x04, 0x02, 0xf5, 0x06, 0x05, 0xfd, 0xfc,
    0xbc, 0x0a, 0xdf, 0x39, 0xfd, 0x0a, 0x26, 0x10, 0x39, 0x0c, 0x21, 0x06,
    0xd4, 0xfb, 0x0e, 0xfa, 0xf9, 0xff, 0xf4, 0xef, 0x00, 0xdd, 0x27, 0x10,
    0xed, 0xf4, 0xf9, 0xca, 0xfd, 0x1b, 0x01, 0x0e, 0x07, 0xdf, 0x34, 0xbb,
    0xef, 0x1f, 0x26, 0xf3, 0xd6, 0xef, 0x0f, 0x37, 0xdf, 0xdc, 0x0d, 0xd1,
    0xc9, 0x1b, 0x11, 0x0b, 0x59, 0x07, 0x49, 0x1b, 0x15, 0xf1, 0xf6, 0xbe,
    0x07, 0x5b, 0x10, 0xf1, 0xb9, 0xf6, 0x0f, 0x02, 0xf9, 0x07, 0xfc, 0xd9,
    0x34, 0xeb, 0xfd, 0x1f, 0xf6, 0xfa, 0x06, 0x0a, 0xee, 0x00, 0xf9, 0x15,
    0xfc, 0x11, 0x13, 0xd5, 0xdf, 0xc0, 0xee, 0xe0, 0x12, 0x25, 0x06, 0xf9,
    0x0b, 0x05, 0x66, 0xba, 0xd2, 0x1e, 0x13, 0xd4, 0xf7, 0x28, 0x4d, 0xca,
    0x17, 0xf7, 0x19, 0x05, 0xf2, 0x0c, 0xca, 0x29, 0x14, 0xd2, 0xd9, 0x04,
    0x09, 0xf3, 0xd9, 0xc5, 0x30, 0xf0, 0xe7, 0xf9, 0xff, 0xaf, 0xf2, 0x36,
    0x23, 0x1d, 0x2f, 0x24, 0xed, 0x2d, 0x33, 0xdc, 0xe0, 0x10, 0xe9, 0xee,
    0xd4, 0x19, 0xc4, 0xe8, 0x47, 0x56, 0xec, 0x0f, 0xcf, 0x29, 0x01, 0xa2,
    0xbf, 0xf5, 0xf3, 0xeb, 0xdb, 0xcc, 0xed, 0x73, 0x33, 0xd3, 0x1b, 0xe0,
    0xeb, 0xdd, 0x17, 0xee, 0x1d, 0xf5, 0x07, 0xe4, 0x1b, 0x0b, 0xd8, 0x14,
    0xfe, 0x05, 0xf9, 0x09, 0x18, 0xeb, 0xf4, 0xc2, 0x28, 0x04, 0x08, 0xe6,
    0xe4, 0xd7, 0xfe, 0x41, 0x2c, 0x42, 0x30, 0xfd, 0xf1, 0x1f, 0x02, 0xc5,
    0x26, 0xde, 0x00, 0xee, 0xe3, 0x09, 0xe3, 0x2a, 0x04, 0xb9, 0xf7, 0xe6,
    0x02, 0xf1, 0x04, 0x08, 0x17, 0xbd, 0x19, 0x07, 0xa6, 0x0a, 0xad, 0x46,
    0xf2, 0x2a, 0x1d, 0x0d, 0x29, 0x16, 0x29, 0xd7, 0xf5, 0xe0, 0xc5, 0x0a,
    0xbb, 0xdf, 0x01, 0x40, 0x31, 0x0a, 0x17, 0x2a, 0x34, 0x5e, 0xf0, 0xe5,
    0xdc, 0xeb, 0xf0, 0xff, 0xb3, 0xe1, 0xe3, 0x67, 0x08, 0xb6, 0xda, 0xd8,
    0xe0, 0x1f, 0xfa, 0xe9, 0xf8, 0xfd, 0x2b, 0xfe, 0xf8, 0x2c, 0xd1, 0x37,
    0xfd, 0xf7, 0xef, 0xfc, 0x0c, 0xc4, 0xf7, 0xe8, 0x22, 0xee, 0xfb, 0xf2,
    0x96, 0xeb, 0xba, 0xa0, 0x28, 0x36, 0x1c, 0x11, 0x14, 0x9a, 0x10, 0xef,
    0x1b, 0xdc, 0x04, 0xe5, 0xfb, 0xfd, 0xcb, 0x03, 0xa2, 0xf0, 0x4d, 0xbd,
    0xde, 0xc8, 0x1c, 0xc7, 0xdd, 0xaa, 0x11, 0x00, 0x9b, 0xf6, 0x2c, 0x1c,
    0xd0, 0x0a, 0x2f, 0xfe, 0x28, 0xb3, 0xcd, 0xeb, 0x01, 0x12, 0x1c, 0xd7,
    0xe0, 0xf8, 0xcf, 0x1e, 0x2a, 0xf9, 0x7f, 0x13, 0xff, 0x18, 0xce, 0xe4,
    0x07, 0xf1, 0x17, 0xf2, 0xf2, 0x36, 0x30, 0x18, 0x1c, 0x43, 0xf3, 0xf9,
    0x38, 0xa4, 0xf1, 0xec, 0xd3, 0xf2, 0x23, 0x06, 0xd9, 0xee, 0xd8, 0x22,
    0xe8, 0xee, 0x50, 0xa5, 0xd1, 0xd6, 0x18, 0xd6, 0x02, 0xce, 0xfb, 0x0e,
    0x82, 0xdd, 0x3b, 0x1b, 0xf5, 0x1c, 0x17, 0xeb, 0xc0, 0xde, 0x24, 0xc4,
    0x38, 0x16, 0x44, 0xcd, 0x0a, 0x21, 0xd2, 0x05, 0xfb, 0xc4, 0xda, 0xfa,
    0x0a, 0xf9, 0xc8, 0xd1, 0x0e, 0xf3, 0x26, 0xf3, 0xb2, 0x08, 0xbd, 0x5e,
    0x09, 0x36, 0x2e, 0xc3, 0x17, 0xbd, 0x4d, 0xdd, 0x23, 0xf9, 0xfe, 0xf7,
    0xb4, 0x11, 0xf5, 0x34, 0x1e, 0x3c, 0x17, 0x07, 0x3e, 0x44, 0x01, 0xe4,
    0xf9, 0x05, 0xfd, 0xf4, 0xcc, 0x09, 0xbe, 0x59, 0x0f, 0xf4, 0xf1, 0xf4,
    0xe1, 0xe6, 0x35, 0xe3, 0x67, 0x18, 0x34, 0xcb, 0x24, 0x39, 0xb4, 0x25,
    0xec, 0xd5, 0x03, 0xdb, 0xfd, 0x04, 0xe8, 0xe3, 0x29, 0xfd, 0x23, 0xda,
    0x9b, 0x26, 0xc3, 0x43, 0x22, 0x2f, 0x1a, 0xef, 0x2c, 0xf9, 0x18, 0x33,
    0xdf, 0xff, 0x07, 0xf3, 0xf3, 0xf9, 0x38, 0xfa, 0xd7, 0x26, 0x03, 0x20,
    0x24, 0x31, 0xfb, 0xee, 0xef, 0x01, 0x0a, 0xd3, 0x3e, 0xdb, 0x31, 0xbb,
    0xfb, 0xfd, 0x07, 0xfa, 0x06, 0x16, 0xdc, 0x2b, 0xf5, 0x33, 0x0b, 0xf4,
    0x30, 0x03, 0xf2, 0xdf, 0xe8, 0xc7, 0xc2, 0x21, 0xe1, 0xb1, 0xe7, 0x1e,
    0xec, 0x00, 0x1a, 0xe0, 0x78, 0xcf, 0x4d, 0xb3, 0xf4, 0xdb, 0x08, 0xdf,
    0x21, 0x13, 0x02, 0x26, 0xd0, 0xc2, 0x03, 0xfc, 0x08, 0xd7, 0x51, 0xf0,
    0xe2, 0x24, 0x03, 0x27, 0x07, 0x1f, 0xf2, 0xed, 0xfc, 0x07, 0xf0, 0xe1,
    0x43, 0x01, 0x26, 0xc8, 0xf8, 0xfd, 0xee, 0x0d, 0xee, 0x1d, 0xf8, 0x2f,
    0xff, 0xdd, 0x08, 0xe7, 0xfd, 0x16, 0x2d, 0xec, 0xdd, 0x00, 0xe8, 0xf6,
    0x1b, 0x2f, 0x19, 0xea, 0xeb, 0x70, 0xc5, 0xe2, 0x0b, 0xf2, 0xd7, 0x0d,
    0x03, 0x08, 0x04, 0xff, 0xf2, 0x12, 0xff, 0x3a, 0xe9, 0xba, 0x16, 0xf6,
    0xee, 0x2d, 0x12, 0xc6, 0xb8, 0xff, 0x83, 0xf9, 0x06, 0xd7, 0xce, 0x1a,
    0x05, 0x09, 0x0a, 0xe4, 0xe5, 0xef, 0xe8, 0xda, 0xdb, 0xc0, 0xd1, 0xca,
    0xf7, 0x23, 0xe4, 0x1c, 0x08, 0xf9, 0x04, 0xf7, 0xeb, 0x27, 0x38, 0xf0,
    0xf9, 0xea, 0xdb, 0xfe, 0x1b, 0x30, 0xe0, 0xf4, 0x0e, 0x62, 0xfb, 0xea,
    0x25, 0x07, 0xee, 0xfc, 0x08, 0x09, 0xe1, 0xd1, 0x33, 0xf6, 0x18, 0x32,
    0xe7, 0x12, 0xf3, 0x27, 0xfd, 0xbd, 0x52, 0xcd, 0xa3, 0x36, 0x25, 0x17,
    0x08, 0x37, 0x09, 0x05, 0xee, 0x14, 0xfe, 0xeb, 0x5d, 0x01, 0x45, 0xe1,
    0xee, 0x06, 0x07, 0xee, 0xf3, 0x16, 0xe2, 0x16, 0x04, 0x3c, 0x08, 0xf9,
    0x39, 0x23, 0x12, 0xd7, 0xe1, 0xa4, 0xde, 0x0e, 0xb1, 0xf1, 0xbe, 0x18,
    0x16, 0xe5, 0x22, 0x0b, 0x7f, 0xf6, 0x49, 0xea, 0x09, 0xe9, 0xe8, 0xb8,
    0x1d, 0x05, 0x1d, 0xed, 0xf2, 0x13, 0xd9, 0xf6, 0x12, 0xe5, 0x68, 0xe6,
    0xd5, 0x18, 0x21, 0x17, 0xfd, 0x2a, 0xef, 0xef, 0x08, 0xf8, 0x10, 0x11,
    0x4e, 0xfb, 0x37, 0xf5, 0xfc, 0xf0, 0xf5, 0xf9, 0x15, 0xfe, 0x22, 0x23,
    0x08, 0xfd, 0xf9, 0x08, 0x00, 0xee, 0x02, 0xf9, 0xe5, 0x15, 0x0c, 0x05,
    0x07, 0x05, 0x14, 0x05, 0xf7, 0x0f, 0x31, 0xdf, 0x1b, 0x1c, 0x0c, 0xde,
    0xfe, 0xfc, 0x04, 0x02, 0x09, 0x11, 0x16, 0x0d, 0x37, 0xf1, 0xf7, 0xfc,
    0x2a, 0x47, 0xf3, 0xe6, 0x04, 0xe4, 0x00, 0x09, 0xe7, 0x1e, 0xf1, 0x11,
    0xe2, 0xfd, 0x38, 0xe5, 0xfc, 0xea, 0x0a, 0x2a, 0x19, 0xf2, 0xec, 0xd7,
    0x2f, 0x0b, 0xfa, 0x01, 0x23, 0x12, 0xf8, 0x09, 0x00, 0xd5, 0x13, 0xf8,
    0xe8, 0xec, 0x0d, 0x3d, 0xfc, 0x0a, 0xfd, 0x15, 0xb3, 0xfb, 0x29, 0xd0,
    0x2c, 0x37, 0x23, 0xe8, 0xe6, 0xee, 0x0e, 0x0d, 0x2d, 0x1b, 0x2c, 0x1f,
    0xf7, 0x1f, 0x26, 0xfb, 0x04, 0x2f, 0x4f, 0xfb, 0xea, 0x05, 0xd9, 0xee,
    0xd7, 0x04, 0xfa, 0xf1, 0x29, 0x1d, 0x14, 0x09, 0x07, 0x35, 0x4c, 0xc6,
    0xf2, 0xfd, 0xee, 0xee, 0xdd, 0x18, 0x15, 0x0c, 0xeb, 0xe4, 0xec, 0xfc,
    0xea, 0x20, 0x7f, 0xb5, 0xb3, 0xff, 0x36, 0x02, 0x12, 0xbf, 0xf8, 0x19,
    0xfd, 0xe7, 0x21, 0x07, 0xc9, 0x19, 0x00, 0xe4, 0xd1, 0xcb, 0x05, 0xd4,
    0x3e, 0x1b, 0x01, 0x27, 0xff, 0xfc, 0x1d, 0x0e, 0x30, 0x29, 0x2d, 0x00,
    0xee, 0x01, 0x02, 0x09, 0x01, 0x0f, 0xe7, 0xef, 0x19, 0x1a, 0x0b, 0xe9,
    0x2c, 0x16, 0x4e, 0xe1, 0xf1, 0xf0, 0xe7, 0xd3, 0x16, 0xed, 0x0d, 0x36,
    0xfc, 0xf9, 0xf3, 0xd9, 0xfe, 0xd6, 0x00, 0xf8, 0xed, 0xee, 0xf2, 0x07,
    0xfa, 0x0a, 0x04, 0xd2, 0x23, 0x04, 0x0f, 0x24, 0x0b, 0x25, 0x0a, 0xf8,
    0x0b, 0x00, 0x12, 0xf6, 0xd9, 0xff, 0xbb, 0x1c, 0x03, 0xca, 0xda, 0xc0,
    0xf6, 0x03, 0xf0, 0xc1, 0xe7, 0xfe, 0xe1, 0xe6, 0xa9, 0x3b, 0xf2, 0xca,
    0xfd, 0xbf, 0x61, 0x09, 0xdd, 0xdc, 0xf6, 0x37, 0x10, 0xcf, 0x21, 0xe0,
    0x15, 0x00, 0x1f, 0x08, 0x1b, 0xe3, 0xed, 0xf6, 0x03, 0xd3, 0xf2, 0xee,
    0xda, 0x0d, 0xe2, 0x2f, 0x0f, 0x03, 0xfc, 0xd8, 0xe0, 0xdf, 0x30, 0x02,
    0xfe, 0x22, 0x09, 0xfe, 0x0a, 0xfa, 0x0b, 0x0e, 0x0b, 0xe9, 0xf9, 0xd8,
    0xe5, 0xdd, 0x02, 0xf8, 0x07, 0x0d, 0x26, 0xf9, 0xf5, 0x08, 0xf4, 0xfc,
    0x2a, 0x05, 0xf2, 0xe4, 0x0f, 0xee, 0xe9, 0xe8, 0x24, 0xbc, 0x03, 0x00,
    0x19, 0x1c, 0x10, 0xf5, 0x2e, 0x02, 0xf6, 0xea, 0xf3, 0x07, 0xc7, 0xf9,
    0xee, 0xc3, 0x13, 0xfa, 0xf4, 0x01, 0xe5, 0x26, 0x06, 0xd4, 0x0c, 0x0f,
    0xe4, 0xfb, 0x06, 0xfd, 0x26, 0xd7, 0x18, 0xd1, 0xed, 0xe3, 0x17, 0x05,
    0x19, 0x0e, 0xf9, 0xc7, 0xe9, 0xef, 0x12, 0x06, 0x21, 0x0e, 0x57, 0x01,
    0x02, 0x2d, 0xf4, 0x0f, 0x23, 0x12, 0xf3, 0x03, 0x56, 0xe8, 0xe0, 0x42,
    0x2f, 0xd1, 0x0c, 0xdf, 0x37, 0x1c, 0xf8, 0xe8, 0xef, 0xf5, 0xe3, 0xd6,
    0xe2, 0xe3, 0xf4, 0xdf, 0xd5, 0x01, 0xe9, 0x11, 0x06, 0xf5, 0xdf, 0xda,
    0xdc, 0x12, 0x1d, 0xe7, 0xfe, 0xf1, 0xd8, 0xf9, 0xe9, 0xe7, 0xab, 0x0a,
    0x16, 0x47, 0x27, 0xf8, 0xe4, 0x24, 0xe3, 0xf5, 0xf4, 0xf5, 0x1a, 0xf8,
    0xc4, 0x0d, 0x08, 0x11, 0xdf, 0xea, 0xd9, 0xd8, 0x05, 0x04, 0xf7, 0x01,
    0x01, 0xf9, 0x13, 0x04, 0xe3, 0x07, 0xba, 0xe5, 0xef, 0x12, 0x06, 0x1e,
    0xef, 0xfb, 0xef, 0xf3, 0xd3, 0xe0, 0xea, 0xcd, 0xf1, 0x04, 0x2f, 0x0c,
    0x01, 0xf2, 0xd9, 0xe0, 0xe9, 0x15, 0xfb, 0xe6, 0x38, 0xf6, 0xb9, 0x48,
    0xfb, 0xf1, 0xe1, 0x00, 0x1f, 0x25, 0x22, 0xea, 0xef, 0xd5, 0xef, 0x00,
    0xdf, 0xef, 0xf0, 0x20, 0xed, 0xf1, 0x37, 0xef, 0xe9, 0x2e, 0x09, 0xde,
    0xf1, 0xd5, 0x1f, 0x06, 0x30, 0xe5, 0xdd, 0xec, 0x3f, 0xe1, 0x0d, 0xd8,
    0x0f, 0x29, 0x0f, 0xe3, 0x04, 0xef, 0xee, 0x13, 0xe7, 0x24, 0xdd, 0xe8,
    0xe5, 0xfa, 0x18, 0xe8, 0xc5, 0x00, 0xdc, 0x15, 0x03, 0xe1, 0x02, 0x11,
    0x11, 0xf3, 0xf7, 0x27, 0x19, 0xe1, 0x11, 0xe5, 0xf0, 0xf7, 0xfd, 0xfc,
    0xf1, 0xcd, 0xe8, 0xef, 0xce, 0x10, 0x24, 0xfe, 0x04, 0xc8, 0x6d, 0xf6,
    0xfa, 0x37, 0xe6, 0xf3, 0x0d, 0xe1, 0xd9, 0x00, 0x7f, 0xde, 0xd7, 0x63,
    0x2b, 0xed, 0x02, 0xb3, 0x19, 0x27, 0x1b, 0xd8, 0xfc, 0xc3, 0x07, 0x25,
    0x23, 0xf2, 0xed, 0xe5, 0xf2, 0xc2, 0xd1, 0xe5, 0x0d, 0xfc, 0xef, 0xee,
    0xe7, 0xf6, 0x0b, 0xbb, 0x0d, 0xfb, 0x11, 0x00, 0xfd, 0x32, 0xe5, 0x25,
    0x25, 0x05, 0x1e, 0xf3, 0xde, 0xca, 0xc5, 0x0c, 0xfd, 0xcf, 0x08, 0x1c,
    0xfa, 0x11, 0xdd, 0xf6, 0xfe, 0x10, 0xe4, 0x04, 0xa3, 0x2a, 0x0c, 0xfd,
    0x14, 0xf2, 0x2d, 0x00, 0xb6, 0xe2, 0xf2, 0x11, 0xfa, 0x28, 0x54, 0x07,
    0xd3, 0xe5, 0xff, 0x1a, 0x41, 0xf9, 0xcd, 0xe5, 0x4f, 0xcb, 0x09, 0xce,
    0x10, 0x02, 0xed, 0x10, 0x0d, 0xf6, 0x0e, 0xe3, 0xaf, 0xfe, 0x1c, 0xe6,
    0x12, 0x58, 0x05, 0xfc, 0x43, 0xf8, 0x1d, 0x05, 0x7f, 0xe8, 0x20, 0xb9,
    0xff, 0x21, 0x25, 0xf0, 0x12, 0x16, 0xf5, 0xeb, 0xfe, 0x1d, 0x01, 0xd9,
    0xcb, 0xda, 0xc4, 0xd4, 0x11, 0xd8, 0x1b, 0x16, 0x00, 0x3a, 0x48, 0xad,
    0x16, 0x0c, 0xeb, 0xe4, 0xaa, 0x3f, 0x1f, 0xcf, 0x29, 0x05, 0xe8, 0x05,
    0x0f, 0x06, 0x60, 0xd8, 0xd9, 0x32, 0x25, 0x10, 0x15, 0xbd, 0x25, 0xfa,
    0xc8, 0xf2, 0x1c, 0xe8, 0xcc, 0x0f, 0x28, 0xe5, 0xce, 0x12, 0x5c, 0x0b,
    0x65, 0xf9, 0x1a, 0xf4, 0x06, 0x20, 0x19, 0xef, 0x39, 0x22, 0xe3, 0x05,
    0xf4, 0xfb, 0x10, 0x28, 0xf8, 0xe2, 0xed, 0xea, 0x03, 0xaa, 0x1b, 0xf6,
    0x06, 0x13, 0x2a, 0xf2, 0x2a, 0xf4, 0xc4, 0xe4, 0x00, 0x09, 0x1f, 0x18,
    0x1c, 0xf1, 0x0c, 0xf9, 0x04, 0xc4, 0xf6, 0x30, 0x0d, 0xfb, 0xec, 0xf0,
    0x07, 0xff, 0xf8, 0xdb, 0x23, 0x39, 0x02, 0x17, 0xea, 0x1e, 0xf2, 0x20,
    0x4f, 0x0e, 0x1b, 0x03, 0xce, 0xfb, 0xe9, 0x04, 0xc8, 0xc8, 0xe0, 0x0a,
    0xd7, 0x23, 0xe0, 0xed, 0x0d, 0x46, 0xe1, 0xf9, 0xa7, 0x3d, 0x13, 0xc5,
    0x13, 0xfe, 0x49, 0x03, 0xb3, 0xc3, 0xe0, 0x69, 0xee, 0xde, 0x5a, 0xf9,
    0xe7, 0xf0, 0xfa, 0x2b, 0x2c, 0xf6, 0xca, 0xf7, 0x3b, 0xcf, 0xe1, 0x13,
    0x0a, 0xf2, 0xfa, 0x0e, 0x0b, 0xc8, 0x04, 0xe5, 0xeb, 0x1c, 0x25, 0xfc,
    0xf2, 0x4a, 0xf2, 0xf8, 0x57, 0x2c, 0x1a, 0x04, 0xe7, 0xd6, 0xf6, 0x1d,
    0x17, 0x10, 0xd8, 0xd4, 0x05, 0x08, 0x0e, 0xf8, 0xe5, 0xe1, 0xf5, 0x20,
    0x2d, 0xea, 0xfe, 0xe9, 0x0a, 0xea, 0xfe, 0x0a, 0x16, 0x40, 0x0e, 0x0c,
    0xec, 0xc9, 0xde, 0xcb, 0x06, 0xc3, 0x05, 0x3f, 0x0f, 0x04, 0x31, 0xf6,
    0xea, 0x37, 0x2e, 0x35, 0xa5, 0x1b, 0x05, 0x64, 0x42, 0xc8, 0x05, 0xfd,
    0x0f, 0x22, 0xfc, 0xf2, 0x06, 0x42, 0x30, 0xd8, 0xf5, 0xd4, 0xd2, 0xd2,
    0xd9, 0xea, 0x02, 0x20, 0x0c, 0xfc, 0x04, 0xe7, 0xf3, 0x01, 0xfd, 0x2a,
    0xf8, 0xe4, 0xe8, 0xfe, 0x1b, 0xe4, 0xeb, 0xff, 0x31, 0x25, 0x06, 0xe7,
    0x21, 0x1c, 0xff, 0xee, 0xfb, 0x0f, 0xff, 0xd7, 0xc1, 0xda, 0xfd, 0x17,
    0x3e, 0xf8, 0xdd, 0xf5, 0xf2, 0xe3, 0xdd, 0xae, 0xd1, 0x1e, 0xba, 0xd3,
    0xd5, 0x19, 0xf6, 0xc9, 0xf5, 0xe3, 0xf1, 0x03, 0x0e, 0x10, 0xc0, 0x50,
    0xec, 0xc9, 0x02, 0xe8, 0xb3, 0x0d, 0xed, 0x18, 0x08, 0xf6, 0xfd, 0x96,
    0xe1, 0xef, 0xde, 0x10, 0x27, 0xce, 0x3f, 0xd0, 0xb3, 0x36, 0xe7, 0xd0,
    0x0e, 0x01, 0xfb, 0xf1, 0xb7, 0x1f, 0xbb, 0x59, 0xde, 0x23, 0xec, 0x06,
    0xe2, 0xdf, 0x0c, 0xe4, 0x35, 0x06, 0x06, 0x01, 0xe2, 0xf5, 0xe6, 0xee,
    0xf3, 0x06, 0xd5, 0xd4, 0xf2, 0x07, 0xfd, 0xb0, 0x17, 0xe0, 0xea, 0xf9,
    0x26, 0xec, 0xd6, 0x55, 0xf4, 0x24, 0x2f, 0xf4, 0xdd, 0xfc, 0x23, 0x2d,
    0x33, 0x15, 0x15, 0xe5, 0x10, 0x2f, 0x0d, 0x11, 0x0a, 0xee, 0xe3, 0x0c,
    0x2d, 0x02, 0x07, 0xd5, 0x25, 0x2d, 0x13, 0xfa, 0x0a, 0x4d, 0xed, 0x39,
    0xed, 0xfa, 0xf8, 0xec, 0x05, 0xea, 0x1b, 0x4a, 0x24, 0x01, 0x42, 0x11,
    0xf4, 0x2c, 0x24, 0x52, 0x14, 0x4a, 0x0d, 0x7f, 0x6f, 0xff, 0x1f, 0xc0,
    0xfa, 0x3a, 0x07, 0xd7, 0xe8, 0x43, 0x29, 0x30, 0x1a, 0x11, 0xea, 0xcd,
    0xf4, 0xf7, 0x08, 0x58, 0x39, 0xf3, 0x25, 0xe5, 0xeb, 0x1d, 0x03, 0x20,
    0xec, 0xed, 0xf3, 0x04, 0x21, 0xf8, 0xfb, 0xee, 0x32, 0x19, 0x21, 0x00,
    0xc7, 0x39, 0xe0, 0x1c, 0xf8, 0x10, 0x12, 0xee, 0x11, 0x16, 0x3b, 0xd8,
    0xee, 0xe7, 0xe8, 0xfe, 0xe6, 0xe8, 0xed, 0xf7, 0xfa, 0xdc, 0xf0, 0x0b,
    0x23, 0xfe, 0xfe, 0xd7, 0x01, 0xe7, 0xf0, 0xf9, 0xfb, 0xe9, 0xfd, 0x02,
    0x05, 0xf5, 0x15, 0x07, 0x29, 0x30, 0x38, 0xd4, 0xdc, 0xf3, 0xe4, 0xd7,
    0xf7, 0x1d, 0xf1, 0x16, 0x34, 0xe4, 0x10, 0x11, 0x0a, 0xf4, 0xd5, 0xde,
    0xdc, 0xf8, 0x1a, 0x01, 0x04, 0xce, 0x1c, 0x7f, 0xf1, 0xd7, 0x05, 0xde,
    0x17, 0x23, 0x3e, 0xe6, 0x2b, 0xe7, 0xde, 0xfe, 0xa7, 0xe1, 0xca, 0x0c,
    0xf7, 0x01, 0xfc, 0x0f, 0x23, 0x19, 0x08, 0xf8, 0xfb, 0xfe, 0x00, 0x02,
    0xc9, 0x08, 0x16, 0x25, 0xf4, 0xce, 0x09, 0x10, 0x33, 0x12, 0x22, 0x23,
    0xd2, 0x02, 0x1f, 0xf4, 0xe4, 0xf9, 0x17, 0x10, 0x0c, 0xc1, 0x36, 0x06,
    0xfe, 0xeb, 0xfc, 0xd9, 0xe5, 0x2a, 0xfd, 0xfa, 0xff, 0xf3, 0x27, 0xc0,
    0xe2, 0x1a, 0x1f, 0xea, 0xcc, 0xdd, 0x26, 0x2f, 0xbd, 0xd3, 0x06, 0xe1,
    0xc8, 0x1d, 0x0c, 0xed, 0x60, 0xfb, 0x4b, 0x1c, 0x0c, 0xfc, 0xf4, 0xaa,
    0x14, 0x25, 0xfb, 0xf4, 0xb8, 0xfc, 0x01, 0x28, 0x01, 0xf4, 0xe3, 0xec,
    0x47, 0x00, 0x05, 0x14, 0xe4, 0x12, 0x16, 0x02, 0xd3, 0x06, 0x2e, 0xeb,
    0x1c, 0x06, 0xfd, 0xe0, 0x01, 0xda, 0xfe, 0xd5, 0x11, 0x30, 0x1a, 0xee,
    0x07, 0x03, 0x5e, 0xaf, 0xc7, 0x35, 0x0f, 0xe2, 0xf3, 0x26, 0x46, 0xc8,
    0x16, 0x00, 0x33, 0x00, 0xea, 0x15, 0xe0, 0x25, 0xf9, 0xdf, 0xf9, 0x04,
    0x0e, 0x20, 0xd9, 0xcb, 0x22, 0xeb, 0xf9, 0xdb, 0xf3, 0xda, 0xf4, 0x25,
    0x09, 0x19, 0x22, 0x3c, 0x07, 0x3e, 0x50, 0xe0, 0xff, 0x21, 0xe9, 0xe4,
    0xec, 0x20, 0xc0, 0xfa, 0x44, 0x1d, 0xf9, 0x04, 0xf0, 0x1e, 0xf8, 0xe0,
    0x9a, 0x0c, 0x2a, 0xed, 0xf2, 0xe9, 0x06, 0x3a, 0x1a, 0xd5, 0x0b, 0xdb,
    0x04, 0x02, 0x23, 0xd2, 0xfc, 0x1a, 0x26, 0xfc, 0xeb, 0x11, 0xbd, 0x22,
    0xfc, 0xff, 0xfb, 0xfe, 0x17, 0x09, 0xdd, 0xe4, 0x26, 0xff, 0xee, 0xea,
    0xc6, 0xc8, 0xe7, 0x17, 0x26, 0x3f, 0x1f, 0x01, 0xff, 0x1d, 0xe2, 0xd9,
    0xea, 0x52, 0x3f, 0x21, 0xc9, 0x62, 0xb6, 0x49, 0xfc, 0xef, 0x04, 0x09,
    0x1c, 0xd4, 0x0c, 0x0f, 0xf7, 0xe5, 0xcc, 0xd8, 0xdd, 0xb0, 0xe7, 0x1d,
    0xe1, 0x45, 0x17, 0x48, 0x54, 0x38, 0x09, 0xda, 0xc8, 0x75, 0xff, 0xe4,
    0xed, 0x04, 0x16, 0x08, 0x48, 0xd5, 0x39, 0x13, 0x39, 0x05, 0xbc, 0xf3,
    0xc9, 0xcf, 0xfc, 0x00, 0x07, 0x18, 0x21, 0x51, 0x23, 0xc7, 0xd5, 0xf5,
    0x0b, 0x44, 0xfc, 0xad, 0x0d, 0x3b, 0xef, 0x24, 0x14, 0x20, 0x07, 0xf6,
    0x07, 0xed, 0xf5, 0x08, 0x1d, 0x06, 0xe4, 0x2d, 0xbc, 0xc9, 0x00, 0xe7,
    0x00, 0xcd, 0x1c, 0x1e, 0xe8, 0x02, 0x21, 0x26, 0x07, 0x06, 0x91, 0x10,
    0xd1, 0xe9, 0xbc, 0x2b, 0xbb, 0xe4, 0xf5, 0x09, 0x05, 0xeb, 0x37, 0xbc,
    0xcc, 0x1f, 0x54, 0xe9, 0x02, 0x5a, 0xd2, 0xef, 0x1a, 0x9c, 0xf6, 0x32,
    0xd6, 0x41, 0x60, 0x2a, 0x10, 0xcf, 0xe9, 0x72, 0xe0, 0xd5, 0xf3, 0xf4,
    0xa5, 0x17, 0xb2, 0x03, 0x7f, 0xdc, 0x62, 0xe8, 0xef, 0x4f, 0xdf, 0xb7,
    0x24, 0x3e, 0xd6, 0xf8, 0xa2, 0xe8, 0xd6, 0x42, 0xdf, 0xc5, 0xaf, 0xee,
    0x26, 0xe5, 0xd0, 0x37, 0xe6, 0xef, 0xd7, 0x45, 0xd5, 0xfa, 0x37, 0xfc,
    0x0e, 0xea, 0x5f, 0xdb, 0xd4, 0x1a, 0x4b, 0xff, 0x12, 0x72, 0xd6, 0x00,
    0x0b, 0xde, 0x44, 0x4a, 0x8d, 0x2b, 0x55, 0xd0, 0xcb, 0x54, 0x2d, 0xca,
    0x02, 0x2e, 0x3a, 0x1a, 0xce, 0x5f, 0xab, 0x10, 0x09, 0x1d, 0xff, 0xe5,
    0x08, 0x05, 0xda, 0x20, 0x38, 0xf4, 0xc2, 0xef, 0xc1, 0x94, 0xd9, 0x2a,
    0xfe, 0x21, 0xf1, 0xda, 0x6d, 0x26, 0x0d, 0xe9, 0x25, 0x59, 0xed, 0xb2,
    0xf4, 0xf8, 0xb0, 0xd6, 0xff, 0x25, 0xcd, 0x11, 0x52, 0x10, 0xe7, 0x00,
    0x9c, 0xee, 0xab, 0x12, 0xff, 0x0c, 0xef, 0x76, 0x35, 0xa5, 0xd0, 0xd4,
    0xbf, 0x2d, 0x19, 0xb9, 0xed, 0x68, 0x17, 0x47, 0x02, 0x1e, 0x9f, 0x0b,
    0x21, 0x15, 0xfc, 0xb0, 0x03, 0xe6, 0xdf, 0x38, 0x28, 0xd6, 0xaa, 0x0a,
    0xc0, 0x8f, 0xcb, 0x06, 0x0e, 0xf4, 0x40, 0x0b, 0x22, 0x08, 0x1a, 0x0b,
    0xde, 0xe3, 0x16, 0xf2, 0xec, 0x02, 0x32, 0xf0, 0xf2, 0x19, 0xfe, 0xfb,
    0x09, 0x06, 0x04, 0xe9, 0xfe, 0xe8, 0x0f, 0xf9, 0x0a, 0x08, 0xea, 0xe9,
    0x2f, 0x04, 0xfc, 0xf6, 0xe7, 0x2b, 0x04, 0x02, 0xea, 0xfd, 0x1e, 0xfa,
    0xff, 0x15, 0x2c, 0xf1, 0xea, 0x02, 0xec, 0x03, 0x01, 0xe1, 0x0a, 0x14,
    0x0a, 0xf2, 0x0d, 0xfa, 0xec, 0x16, 0x0b, 0xce, 0x04, 0xff, 0x1d, 0xfd,
    0x0e, 0x0c, 0x2c, 0xfb, 0xe9, 0xf2, 0x13, 0xeb, 0x00, 0x09, 0x78, 0xfd,
    0xf7, 0x13, 0xff, 0x06, 0x10, 0x0d, 0xf9, 0xf4, 0x3c, 0xf4, 0x23, 0x29,
    0x2c, 0xfc, 0x0a, 0x01, 0x28, 0x02, 0xf7, 0xfb, 0x08, 0xfb, 0xf1, 0x1d,
    0xe5, 0xe7, 0x34, 0xff, 0xd3, 0x3d, 0x54, 0xe2, 0xb8, 0x09, 0xe1, 0xec,
    0xea, 0x1b, 0x0b, 0xe1, 0x36, 0xf7, 0x2f, 0xfa, 0xca, 0x4d, 0xde, 0xd1,
    0x15, 0xfb, 0xeb, 0xf9, 0xe0, 0xf7, 0xe4, 0x1c, 0xe1, 0xdc, 0x37, 0xf9,
    0xd7, 0x42, 0x1d, 0xe2, 0xc3, 0xe3, 0xbd, 0xfa, 0x19, 0xc4, 0xdf, 0x20,
    0x27, 0xd2, 0x2f, 0x08, 0xf9, 0x57, 0xf0, 0xc7, 0xe8, 0x02, 0x0c, 0xcf,
    0xde, 0xf1, 0xf9, 0x1a, 0xfe, 0xf7, 0x1b, 0xfd, 0xde, 0x4f, 0x64, 0xe9,
    0xdc, 0x11, 0xc1, 0xfa, 0xf3, 0x14, 0xfe, 0xf0, 0x41, 0xf8, 0x2f, 0x39,
    0xff, 0x55, 0xd6, 0xd3, 0x2a, 0x12, 0xfd, 0xe5, 0x1e, 0xf5, 0xdc, 0x04,
    0xc0, 0xaf, 0xcd, 0xef, 0xb0, 0xf4, 0x28, 0xe8, 0xc0, 0xee, 0x13, 0xdb,
    0xc5, 0x03, 0x00, 0xd6, 0x20, 0xeb, 0xfa, 0x14, 0xf4, 0xf5, 0xed, 0xca,
    0xf0, 0xdf, 0xdc, 0xf2, 0xc7, 0x0e, 0xf0, 0x0a, 0x03, 0xd9, 0xe9, 0xce,
    0xdb, 0xf7, 0x2b, 0xec, 0xc9, 0xbe, 0xf1, 0xeb, 0xe9, 0xef, 0xda, 0x09,
    0x20, 0xea, 0x32, 0x08, 0xe1, 0xfc, 0xeb, 0xdf, 0xe0, 0xda, 0xe2, 0xde,
    0x2a, 0x01, 0xeb, 0x01, 0xd3, 0xda, 0xe7, 0xd3, 0xe7, 0xe8, 0x7f, 0xf8,
    0xdd, 0xd5, 0x0b, 0xf9, 0xe5, 0x0b, 0xd1, 0xe3, 0x73, 0x13, 0xfe, 0x5e,
    0x1b, 0xf9, 0xf6, 0xc6, 0x1e, 0x0b, 0xe1, 0xe7, 0x01, 0xe0, 0xd2, 0x7f,
    0x0a, 0xdc, 0xda, 0x20, 0xf4, 0xea, 0xf7, 0xcd, 0xf0, 0x0b, 0x14, 0x30,
    0x39, 0xf5, 0x1f, 0xda, 0xd8, 0xf5, 0xde, 0xf1, 0x0d, 0xe5, 0x3b, 0x12,
    0xa4, 0xd7, 0x0b, 0xf1, 0x3d, 0xd1, 0xa3, 0x76, 0xd7, 0x23, 0x0f, 0xdd,
    0x23, 0x0c, 0x06, 0xd2, 0xff, 0xa8, 0x26, 0x29, 0xf9, 0xe6, 0xf3, 0xf4,
    0x0a, 0xfd, 0xdb, 0xf1, 0x69, 0xe9, 0x44, 0x05, 0xdd, 0x0c, 0xef, 0x26,
    0x07, 0xda, 0xdd, 0x34, 0xdb, 0x00, 0xc5, 0x39, 0xf3, 0xde, 0x0a, 0xc8,
    0xdb, 0x15, 0xf8, 0x30, 0x0d, 0x00, 0x02, 0x09, 0xfe, 0xd5, 0xcf, 0x13,
    0x18, 0xd9, 0x2a, 0x0e, 0xc3, 0x01, 0x0b, 0xca, 0xcc, 0x03, 0xdd, 0x23,
    0x20, 0xd3, 0xfe, 0xe1, 0x17, 0x08, 0xfe, 0x0a, 0xec, 0x0b, 0xed, 0x19,
    0x23, 0xfa, 0x0b, 0x1d, 0xd3, 0x5e, 0xe9, 0xe3, 0x31, 0xdf, 0x3b, 0x42,
    0xbe, 0xde, 0xfc, 0xf6, 0x1a, 0x27, 0x09, 0x39, 0x22, 0xf6, 0xe0, 0x0c,
    0xf9, 0x10, 0xf0, 0x03, 0x17, 0xd1, 0xc1, 0xfe, 0x0f, 0xff, 0xf4, 0xe8,
    0xf1, 0x24, 0x07, 0xdd, 0xf1, 0xdd, 0x06, 0x21, 0xc3, 0xd2, 0xd0, 0x0a,
    0xd9, 0xf9, 0xc4, 0x3b, 0x0c, 0xde, 0xfd, 0xf0, 0xfc, 0x1a, 0x15, 0x08,
    0xf2, 0xfe, 0xed, 0x0f, 0x13, 0xec, 0xf7, 0x13, 0x13, 0x4e, 0xd4, 0xdd,
    0x3d, 0xe8, 0x1f, 0x2f, 0xc0, 0xe4, 0xed, 0xe4, 0xff, 0xfc, 0xf8, 0x3f,
    0xf4, 0x42, 0xe0, 0x21, 0xf0, 0xb8, 0x09, 0xc4, 0xe9, 0x29, 0x0e, 0x30,
    0x19, 0x11, 0x03, 0xf6, 0xa6, 0xeb, 0xf7, 0xeb, 0x32, 0xef, 0x3e, 0xd6,
    0xca, 0xfa, 0x0d, 0xf7, 0x03, 0xdd, 0xdb, 0x55, 0xd1, 0x2b, 0x3d, 0xeb,
    0x34, 0x47, 0x09, 0xf1, 0xfd, 0xb6, 0x18, 0x10, 0xe9, 0xd2, 0xf5, 0x02,
    0x2d, 0x06, 0xdd, 0xec, 0x65, 0x02, 0x1c, 0xc1, 0x19, 0x31, 0xe8, 0x02,
    0x05, 0xe5, 0xf1, 0x41, 0xf5, 0x21, 0xde, 0x1a, 0xe9, 0xd2, 0x27, 0xbb,
    0xd7, 0x15, 0x09, 0x3a, 0x06, 0x0e, 0x0c, 0x11, 0xde, 0x07, 0xf3, 0x0e,
    0x3f, 0x02, 0x35, 0x07, 0xb5, 0xf2, 0xf2, 0xf4, 0xd8, 0xdb, 0xb1, 0x29,
    0x10, 0xe4, 0x10, 0xf3, 0x06, 0x18, 0x1a, 0xde, 0xe2, 0x17, 0x02, 0x10,
    0xfe, 0x03, 0x0e, 0x11, 0xfb, 0x19, 0x06, 0xe2, 0x3b, 0x20, 0x15, 0xdc,
    0xc8, 0xda, 0x04, 0xef, 0xf7, 0xb8, 0xd1, 0x32, 0x20, 0xe9, 0x0b, 0x35,
    0x01, 0xf9, 0xf8, 0xef, 0xcd, 0x9c, 0xb4, 0x35, 0x34, 0xe9, 0x05, 0x25,
    0xfa, 0x0d, 0x09, 0xef, 0x34, 0x1b, 0x11, 0xfe, 0xde, 0xde, 0xf9, 0xd0,
    0xf6, 0xdf, 0xbd, 0xfe, 0x4e, 0x36, 0x1a, 0xcb, 0x3a, 0x22, 0x16, 0xce,
    0xee, 0xee, 0x06, 0xf8, 0xf2, 0xf5, 0xe8, 0x14, 0xc6, 0x05, 0x21, 0xf5,
    0x22, 0x21, 0x03, 0xfa, 0xb6, 0xf0, 0xfd, 0xdb, 0xd6, 0xfc, 0x06, 0xd5,
    0x2b, 0xfd, 0xc1, 0x1b, 0x02, 0xee, 0xb7, 0xd0, 0xd8, 0x16, 0x0c, 0xaf,
    0xca, 0x55, 0x4b, 0xcb, 0xdc, 0xe5, 0x08, 0xeb, 0x81, 0xf5, 0x9c, 0x79,
    0x02, 0x0b, 0x13, 0x21, 0x1a, 0x1c, 0xe2, 0xc0, 0x01, 0xd2, 0xe8, 0xca,
    0xf2, 0xf7, 0xcf, 0xd5, 0xe9, 0xa1, 0x95, 0xd4, 0xec, 0x3f, 0xbf, 0x3b,
    0xfa, 0xb5, 0x1b, 0xe2, 0x21, 0xf9, 0x10, 0x1b, 0xee, 0xd1, 0x04, 0x06,
    0xb3, 0xed, 0x04, 0xe6, 0x2f, 0x01, 0xf1, 0xe2, 0x1f, 0xf4, 0xc3, 0xd1,
    0xd6, 0xe3, 0x06, 0x03, 0xed, 0x31, 0x44, 0xc8, 0xf0, 0xb7, 0xff, 0xf7,
    0xe9, 0x00, 0xdf, 0x60, 0xe5, 0x02, 0x1e, 0xed, 0xcf, 0xe8, 0xb3, 0x1e,
    0x08, 0x3b, 0x3d, 0x27, 0x1f, 0x0e, 0xa4, 0xe9, 0xe8, 0x38, 0xfb, 0xbf,
    0xed, 0xf7, 0x23, 0x1e, 0xf3, 0x0d, 0xfe, 0xc2, 0xb9, 0x35, 0xa3, 0xf7,
    0xf0, 0x02, 0x03, 0x05, 0xef, 0xce, 0xe0, 0x15, 0xe9, 0xfd, 0x05, 0x3a,
    0xf3, 0xd1, 0xb6, 0x00, 0xf7, 0xa9, 0xc0, 0x54, 0x43, 0xc2, 0xe7, 0x24,
    0x1b, 0x37, 0x9b, 0xef, 0xe8, 0x05, 0x12, 0xca, 0x1f, 0xd2, 0xe4, 0xfc,
    0xd8, 0xe5, 0x9a, 0xfc, 0x26, 0x15, 0x1a, 0x0c, 0x22, 0x29, 0x11, 0x08,
    0x2d, 0x11, 0x01, 0x07, 0xfd, 0xdb, 0xf2, 0x07, 0xcc, 0xe0, 0xfc, 0xe0,
    0x2f, 0x0c, 0x16, 0xca, 0xb4, 0x09, 0xe4, 0xef, 0xd5, 0xf0, 0xf5, 0xc9,
    0x11, 0x0d, 0x33, 0xc5, 0xf8, 0x30, 0xeb, 0xff, 0x3b, 0xdf, 0xf4, 0xf1,
    0x08, 0xfe, 0xc3, 0x02, 0xfa, 0xd2, 0xff, 0xfb, 0xde, 0xfc, 0xda, 0x1e,
    0x07, 0xef, 0xb8, 0xc8, 0x0e, 0x1d, 0x1b, 0xe7, 0x21, 0xe7, 0xcb, 0x01,
    0xcf, 0xc3, 0x0b, 0x0d, 0xdc, 0x1f, 0x0a, 0x07, 0x34, 0xf1, 0x1a, 0x0a,
    0xfb, 0x00, 0xdf, 0xfe, 0xe2, 0x15, 0xf5, 0xef, 0xf2, 0x06, 0x12, 0x13,
    0xe1, 0x16, 0xfd, 0xbb, 0xff, 0x14, 0x35, 0xe3, 0x0b, 0x07, 0xfc, 0x10,
    0xfc, 0xc0, 0xde, 0x02, 0x13, 0xf5, 0xb3, 0x09, 0x16, 0xe0, 0xec, 0x08,
    0xf4, 0x06, 0xe1, 0xff, 0x15, 0x06, 0xea, 0xd3, 0xe4, 0xcd, 0xe2, 0xde,
    0x1b, 0xea, 0xd4, 0x04, 0xd7, 0xe3, 0xe5, 0xc1, 0x33, 0x10, 0x23, 0xf7,
    0xd9, 0xe3, 0x06, 0xee, 0xee, 0xc9, 0x08, 0x06, 0xe0, 0xf3, 0xe5, 0x05,
    0xf1, 0x00, 0x2c, 0xf8, 0x33, 0xe7, 0xd4, 0xee, 0xf6, 0xeb, 0x06, 0x0c,
    0xfe, 0xfb, 0xce, 0x14, 0xed, 0xf5, 0xe5, 0xf7, 0xd2, 0x2c, 0x27, 0xec,
    0x17, 0xd6, 0x0b, 0xff, 0x0c, 0x15, 0xfe, 0x19, 0x00, 0x26, 0x20, 0x2d,
    0xf5, 0xf4, 0xd0, 0xff, 0x1c, 0xd6, 0xe7, 0xf6, 0xf9, 0xd4, 0xf1, 0xe9,
    0x23, 0xff, 0xde, 0x06, 0xf3, 0xec, 0x0a, 0xe5, 0xf7, 0xf7, 0xef, 0x20,
    0xf5, 0xe4, 0xee, 0xff, 0x29, 0x0a, 0x2d, 0xe5, 0xdd, 0xfd, 0x14, 0xde,
    0x07, 0x0b, 0x3b, 0xed, 0xf9, 0x40, 0xe8, 0x0b, 0x42, 0xd4, 0x05, 0xfe,
    0xf6, 0xf4, 0xe8, 0x06, 0xfc, 0x15, 0xe9, 0x15, 0xe0, 0xf1, 0xe5, 0x31,
    0xfe, 0xf1, 0xd7, 0xed, 0xfb, 0x40, 0x35, 0xf3, 0x13, 0xe8, 0xeb, 0x0e,
    0xd0, 0xe6, 0x06, 0x28, 0x01, 0x54, 0xfd, 0xff, 0x39, 0xed, 0x21, 0x02,
    0xfd, 0x0e, 0xc8, 0x19, 0xe3, 0x22, 0xe4, 0xdc, 0x0f, 0x14, 0x0d, 0x30,
    0xdb, 0x20, 0x1e, 0xc3, 0x23, 0x09, 0x12, 0xe1, 0x18, 0x54, 0xf4, 0xff,
    0x29, 0xfa, 0x06, 0xef, 0xce, 0x01, 0xe7, 0x07, 0x1f, 0x14, 0xf1, 0x7f,
    0xe2, 0xfc, 0xd9, 0x10, 0x2e, 0xf9, 0xfa, 0xee, 0x3c, 0x16, 0x0f, 0x1d,
    0xa4, 0xca, 0x0c, 0x03, 0xe7, 0x0f, 0x21, 0x04, 0xe3, 0xfc, 0x14, 0x40,
    0x0a, 0x29, 0x10, 0x00, 0xcd, 0x08, 0x0d, 0xd6, 0x12, 0xba, 0x39, 0xb6,
    0xff, 0xf2, 0xeb, 0x09, 0xfc, 0x24, 0x1c, 0xe7, 0x3f, 0x09, 0x03, 0xd5,
    0x4a, 0x10, 0xfd, 0xe2, 0xee, 0x87, 0x38, 0xf7, 0xe3, 0xc8, 0xf0, 0x37,
    0xee, 0xe5, 0x42, 0xe2, 0x3e, 0xde, 0x34, 0xa2, 0x16, 0x2f, 0x06, 0x0d,
    0x5c, 0x0c, 0x39, 0x19, 0x8a, 0x82, 0x01, 0x0f, 0xd5, 0xd4, 0x02, 0xef,
    0xe9, 0x0d, 0x1c, 0x26, 0x0b, 0x2c, 0xfc, 0x19, 0xe6, 0xf4, 0xf5, 0xed,
    0x1c, 0xc7, 0x36, 0xc0, 0x05, 0xe3, 0xeb, 0x04, 0xe0, 0x3b, 0xf5, 0x13,
    0xfc, 0x17, 0x24, 0x0c, 0xdb, 0x36, 0x58, 0xe2, 0xf6, 0x1e, 0xd8, 0x01,
    0xef, 0xf7, 0xe8, 0x44, 0x24, 0x3c, 0x1f, 0xfa, 0x02, 0x2a, 0xe8, 0x9e,
    0xf6, 0xe3, 0xe0, 0xe2, 0xfc, 0xfd, 0x24, 0x13, 0x03, 0x0d, 0x17, 0x2e,
    0x2c, 0x28, 0x1c, 0xdd, 0xd8, 0x19, 0x99, 0xee, 0x37, 0xa1, 0xc8, 0x20,
    0x0d, 0xf5, 0x19, 0xf3, 0xbe, 0xee, 0xc7, 0x8f, 0xf5, 0xd2, 0xf5, 0xa7,
    0xf4, 0x4e, 0xc6, 0x25, 0x09, 0xea, 0x0a, 0x08, 0xd7, 0x1c, 0x31, 0xde,
    0xe9, 0x0b, 0xd8, 0x0a, 0xe8, 0x0e, 0xe8, 0x2c, 0x17, 0x23, 0x17, 0xde,
    0x28, 0x23, 0xc4, 0xa6, 0x25, 0xf7, 0xe0, 0xcc, 0x63, 0x15, 0x1b, 0x29,
    0xb3, 0xce, 0xe5, 0xb5, 0x9d, 0xba, 0x39, 0xda, 0xcc, 0xde, 0x09, 0xce,
    0xcf, 0x44, 0xfc, 0xed, 0xe2, 0x18, 0x01, 0x2e, 0x16, 0xfa, 0xe1, 0xcc,
    0xf2, 0xc6, 0xae, 0xff, 0xd8, 0x22, 0x05, 0x18, 0x2a, 0x06, 0x0f, 0xa5,
    0x16, 0xfa, 0x0a, 0xfe, 0x98, 0x81, 0x4e, 0xbe, 0xda, 0xfa, 0x14, 0x48,
    0x4d, 0xdb, 0x56, 0x0a, 0x0c, 0xff, 0xd1, 0xc6, 0xf2, 0x2e, 0xed, 0x26,
    0x46, 0x10, 0x34, 0x04, 0xdb, 0xb3, 0xc0, 0xdb, 0xe8, 0xda, 0x26, 0xc3,
    0x84, 0xdc, 0x37, 0x20, 0xf8, 0x43, 0x0a, 0x1c, 0xf6, 0x18, 0x3c, 0x1a,
    0x1f, 0xfd, 0x2e, 0xf3, 0x1f, 0xed, 0xba, 0xec, 0xc0, 0x0c, 0x1c, 0x12,
    0xd4, 0xd0, 0xd8, 0xf1, 0xb5, 0x06, 0x20, 0xe3, 0xda, 0x11, 0xbf, 0xc8,
    0xdc, 0xd5, 0xff, 0xda, 0x1b, 0xdd, 0xf4, 0x0a, 0xdd, 0x12, 0xcd, 0xf3,
    0xfe, 0xfc, 0x00, 0xf4, 0xec, 0x2b, 0xec, 0x26, 0xbb, 0x0a, 0x33, 0xf1,
    0xa7, 0x25, 0x2e, 0xef, 0xec, 0x00, 0xd8, 0xe4, 0xfc, 0xee, 0x14, 0xe9,
    0x33, 0xf1, 0xd2, 0x0a, 0x00, 0x48, 0xed, 0xde, 0xee, 0xd8, 0x18, 0x0c,
    0xa7, 0x0f, 0x18, 0xf5, 0xf1, 0x07, 0x1e, 0xf4, 0xe6, 0x14, 0x4f, 0xf6,
    0x0c, 0x1a, 0xdb, 0xdb, 0x03, 0xbd, 0xec, 0xf1, 0x73, 0xe3, 0x08, 0x6a,
    0xe8, 0x08, 0xda, 0xe1, 0x0e, 0x08, 0x06, 0xf4, 0xb1, 0xf0, 0x16, 0x37,
    0xee, 0xe9, 0x47, 0xf1, 0xe4, 0x66, 0x29, 0xd5, 0xda, 0x0a, 0xba, 0x17,
    0x40, 0xc0, 0x02, 0xc5, 0x2b, 0x05, 0x08, 0xf6, 0xbf, 0x25, 0xdb, 0x1a,
    0xc6, 0xdb, 0xf7, 0xef, 0xd8, 0xf1, 0x0a, 0x47, 0xd4, 0xe9, 0x19, 0x15,
    0x9e, 0x52, 0x12, 0xe7, 0xd7, 0xd9, 0xcb, 0x23, 0x4e, 0xe3, 0xe2, 0xd6,
    0x26, 0xdf, 0x2c, 0x00, 0xc8, 0x59, 0xf0, 0xed, 0xd7, 0x04, 0xf4, 0xf5,
    0xb3, 0xdd, 0x18, 0x36, 0x05, 0x03, 0x30, 0xeb, 0xee, 0x4c, 0x62, 0xea,
    0xd3, 0x0a, 0xbe, 0x19, 0x3c, 0xd0, 0xf3, 0xca, 0x4a, 0xf7, 0x30, 0x36,
    0xe8, 0x44, 0xfd, 0xe6, 0x0c, 0xf1, 0xf7, 0xe1, 0xc8, 0x0b, 0xf2, 0xe4,
    0xb9, 0xd3, 0xbc, 0x13, 0xd7, 0x0a, 0x42, 0xe0, 0xc3, 0x06, 0xf4, 0x05,
    0xd6, 0xc6, 0xff, 0xae, 0x05, 0xe3, 0xe3, 0xf0, 0x12, 0xdc, 0x09, 0xc2,
    0xb1, 0xe0, 0x29, 0xf3, 0x0f, 0x02, 0xeb, 0x0c, 0xc9, 0xe4, 0xf2, 0xfb,
    0xe1, 0x10, 0x43, 0xf0, 0x07, 0xcd, 0x11, 0x41, 0x16, 0xe3, 0xcc, 0xff,
